<pad>	0
<s>	0
</s>	0
<unk>	0
es	-0
on	-1
▁d	-2
ti	-3
▁t	-4
▁a	-5
en	-6
▁l	-7
▁p	-8
in	-9
re	-10
he	-11
▁c	-12
er	-13
▁s	-14
an	-15
▁o	-16
▁the	-17
is	-18
tion	-19
ent	-20
or	-21
ar	-22
▁de	-23
it	-24
le	-25
ur	-26
om	-27
▁m	-28
ation	-29
▁of	-30
▁in	-31
al	-32
▁pr	-33
at	-34
▁f	-35
▁e	-36
qu	-37
un	-38
▁la	-39
ic	-40
▁b	-41
ment	-42
▁C	-43
ed	-44
▁con	-45
▁1	-46
▁to	-47
▁n	-48
▁an	-49
▁(	-50
▁A	-51
tic	-52
si	-53
▁r	-54
▁pro	-55
▁re	-56
omm	-57
ut	-58
▁2	-59
▁des	-60
as	-61
ant	-62
ve	-63
ing	-64
▁à	-65
▁par	-66
▁w	-67
▁le	-68
ul	-69
▁and	-70
ticle	-71
▁et	-72
ce	-73
▁les	-74
ra	-75
il	-76
▁qu	-77
ec	-78
és	-79
▁du	-80
ire	-81
▁Comm	-82
us	-83
▁en	-84
em	-85
pp	-86
res	-87
00	-88
▁v	-89
im	-90
rticle	-91
▁T	-92
ta	-93
▁be	-94
▁for	-95
▁L	-96
▁th	-97
ans	-98
▁po	-99
tat	-100
▁au	-101
du	-102
▁Article	-103
▁sh	-104
te	-105
el	-106
ro	-107
▁un	-108
ri	-109
et	-110
all	-111
ag	-112
emb	-113
▁D	-114
▁S	-115
sion	-116
▁su	-117
bl	-118
id	-119
▁dé	-120
ne	-121
ac	-122
op	-123
▁on	-124
ion	-125
est	-126
▁ac	-127
▁shall	-128
ort	-129
tive	-130
▁com	-131
▁E	-132
▁R	-133
▁3	-134
▁é	-135
▁I	-136
▁or	-137
▁app	-138
fic	-139
▁no	-140
od	-141
lement	-142
ir	-143
ter	-144
▁ex	-145
▁g	-146
ission	-147
▁produ	-148
ol	-149
ations	-150
ig	-151
orm	-152
▁M	-153
▁comp	-154
▁dans	-155
se	-156
ith	-157
irec	-158
ér	-159
tin	-160
▁by	-161
EC	-162
ity	-163
▁with	-164
ch	-165
ci	-166
ont	-167
ée	-168
ure	-169
form	-170
st	-171
tions	-172
▁Commission	-173
▁Commun	-174
▁que	-175
▁h	-176
▁pour	-177
▁as	-178
ées	-179
▁P	-180
ision	-181
▁ma	-182
que	-183
CE	-184
▁ou	-185
ers	-186
port	-187
ité	-188
ces	-189
me	-190
ct	-191
ance	-192
▁comm	-193
▁do	-194
iv	-195
aut	-196
rap	-197
ble	-198
ate	-199
▁200	-200
èg	-201
▁conc	-202
99	-203
▁Re	-204
its	-205
gul	-206
▁co	-207
▁N	-208
end	-209
▁is	-210
▁aut	-211
po	-212
irective	-213
agrap	-214
AR	-215
ord	-216
▁est	-217
▁appl	-218
▁memb	-219
di	-220
▁règ	-221
la	-222
▁ad	-223
and	-224
▁ré	-225
ff	-226
les	-227
▁Stat	-228
ésent	-229
État	-230
urop	-231
▁paragrap	-232
▁The	-233
urs	-234
ures	-235
ting	-236
ments	-237
lo	-238
tit	-239
▁wh	-240
▁im	-241
ember	-242
▁Regul	-243
▁acc	-244
▁that	-245
▁règlement	-246
▁prov	-247
▁so	-248
▁4	-249
ern	-250
▁Regulation	-251
),	-252
▁_	-253
BAR	-254
▁présent	-255
here	-256
▁mar	-257
ie	-258
article	-259
▁aux	-260
▁Member	-261
um	-262
▁sur	-263
▁pré	-264
au	-265
fi	-266
ect	-267
ard	-268
ties	-269
nex	-270
ON	-271
ires	-272
▁al	-273
ist	-274
▁État	-275
▁cont	-276
▁res	-277
ication	-278
our	-279
oun	-280
aire	-281
ence	-282
▁No	-283
der	-284
ex	-285
▁-	-286
▁qui	-287
▁j	-288
red	-289
tabl	-290
her	-291
▁fr	-292
▁dis	-293
ich	-294
▁sont	-295
êt	-296
▁5	-297
able	-298
ue	-299
sid	-300
▁which	-301
▁Community	-302
▁9	-303
▁this	-304
té	-305
av	-306
▁me	-307
ly	-308
▁une	-309
▁concern	-310
▁paragraphe	-311
▁tr	-312
▁sub	-313
▁ent	-314
aires	-315
tiv	-316
ay	-317
ud	-318
int	-319
▁cer	-320
▁cons	-321
ES	-322
ubl	-323
▁States	-324
▁O	-325
▁ne	-326
to	-327
▁199	-328
▁per	-329
pr	-330
▁tra	-331
uv	-332
▁are	-333
▁commun	-334
ction	-335
li	-336
ix	-337
min	-338
▁accord	-339
▁from	-340
▁ch	-341
ad	-342
▁W	-343
fer	-344
▁membres	-345
▁mo	-346
▁7	-347
▁1.	-348
app	-349
▁reg	-350
▁F	-351
▁États	-352
▁Les	-353
ION	-354
▁2.	-355
▁trans	-356
ement	-357
▁H	-358
▁(1	-359
tain	-360
ust	-361
▁déc	-362
ary	-363
200	-364
▁consid	-365
▁mod	-366
▁not	-367
▁pl	-368
▁partic	-369
▁es	-370
▁ce	-371
▁pre	-372
▁6	-373
▁proc	-374
▁Con	-375
▁8	-376
▁Directive	-377
ques	-378
tablis	-379
▁sa	-380
être	-381
▁pas	-382
une	-383
CEE	-384
▁J	-385
ier	-386
EEC	-387
▁directive	-388
▁inform	-389
ise	-390
▁cas	-391
mp	-392
posi	-393
▁"	-394
▁sp	-395
▁at	-396
ther	-397
/9	-398
▁fin	-399
▁Communaut	-400
▁être	-401
▁B	-402
urope	-403
ine	-404
EN	-405
▁CO	-406
▁prév	-407
▁conform	-408
▁pe	-409
IS	-410
éen	-411
fici	-412
▁Europe	-413
▁se	-414
erv	-415
hereas	-416
▁am	-417
tific	-418
uropéen	-419
onn	-420
ge	-421
▁TH	-422
hor	-423
ess	-424
▁européen	-425
ités	-426
ique	-427
▁under	-428
▁considér	-429
ét	-430
éri	-431
▁European	-432
▁refer	-433
wn	-434
isation	-435
aux	-436
ver	-437
ts	-438
▁product	-439
▁inter	-440
▁ag	-441
▁An	-442
▁vis	-443
low	-444
uld	-445
▁Le	-446
ice	-447
cl	-448
▁mes	-449
▁ind	-450
▁op	-451
ale	-452
tif	-453
▁ins	-454
ors	-455
ère	-456
ément	-457
▁condi	-458
▁author	-459
▁import	-460
▁19	-461
▁publ	-462
cess	-463
▁requ	-464
▁regard	-465
ap	-466
ies	-467
▁appro	-468
age	-469
▁Communauté	-470
seil	-471
▁may	-472
▁applic	-473
/200	-474
ould	-475
UR	-476
▁bas	-477
▁particul	-478
▁ta	-479
▁provid	-480
ient	-481
ities	-482
cil	-483
fin	-484
up	-485
▁eff	-486
▁COM	-487
gan	-488
▁y	-489
▁Coun	-490
▁Council	-491
ational	-492
▁it	-493
mb	-494
titu	-495
og	-496
▁entre	-497
▁resp	-498
2)	-499
ifi	-500
til	-501
▁av	-502
pos	-503
de	-504
▁fa	-505
▁meas	-506
▁Conseil	-507
ated	-508
ention	-509
▁In	-510
▁Annex	-511
tives	-512
▁its	-513
▁disposi	-514
rit	-515
▁ar	-516
ens	-517
▁tout	-518
▁COMM	-519
▁rela	-520
▁conditions	-521
isions	-522
▁rec	-523
▁La	-524
▁accordance	-525
▁produits	-526
▁considérant	-527
▁ter	-528
ric	-529
▁point	-530
ection	-531
▁establis	-532
elle	-533
▁there	-534
ip	-535
bil	-536
▁THE	-537
ég	-538
ond	-539
▁us	-540
nexe	-541
▁march	-542
ult	-543
▁présente	-544
▁mark	-545
UN	-546
▁certain	-547
▁3.	-548
mes	-549
▁should	-550
▁Whereas	-551
cial	-552
ollow	-553
▁membre	-554
▁referred	-555
ru	-556
▁Th	-557
▁State	-558
▁ces	-559
▁other	-560
▁measures	-561
▁exp	-562
if	-563
ises	-564
▁follow	-565
ux	-566
▁mesures	-567
ès	-568
OP	-569
▁products	-570
ins	-571
ted	-572
tis	-573
▁pay	-574
--	-575
▁ass	-576
ill	-577
con	-578
ry	-579
▁out	-580
aving	-581
annexe	-582
▁fix	-583
▁dispositions	-584
▁10	-585
IT	-586
▁pers	-587
▁Par	-588
▁rep	-589
▁ha	-590
▁rég	-591
▁décision	-592
3)	-593
▁st	-594
▁down	-595
▁dem	-596
Un	-597
▁imp	-598
▁ti	-599
én	-600
ore	-601
▁II	-602
ants	-603
▁son	-604
▁cet	-605
out	-606
elles	-607
ré	-608
cep	-609
▁été	-610
par	-611
ific	-612
▁paragraph	-613
pri	-614
▁amend	-615
▁ob	-616
vel	-617
▁particular	-618
▁tak	-619
▁into	-620
ENT	-621
▁%	-622
▁demand	-623
AT	-624
bles	-625
▁EUR	-626
▁il	-627
▁suiv	-628
ues	-629
▁spec	-630
▁car	-631
▁adop	-632
cu	-633
▁12	-634
▁sec	-635
che	-636
ourn	-637
ign	-638
▁organ	-639
▁G	-640
/1	-641
▁any	-642
th	-643
▁autor	-644
▁such	-645
▁direc	-646
ech	-647
▁Dec	-648
acc	-649
AN	-650
▁communaut	-651
we	-652
▁conformément	-653
▁This	-654
▁modifi	-655
▁produc	-656
▁vu	-657
▁following	-658
▁prem	-659
ear	-660
os	-661
ode	-662
▁européenne	-663
ite	-664
▁serv	-665
ia	-666
conom	-667
▁provided	-668
ences	-669
▁Having	-670
▁procé	-671
▁provisions	-672
▁quan	-673
▁Decision	-674
▁contr	-675
▁their	-676
tifi	-677
▁have	-678
ons	-679
▁prog	-680
▁[	-681
▁all	-682
▁sy	-683
▁V	-684
mment	-685
ices	-686
▁applicable	-687
4)	-688
▁int	-689
ram	-690
▁application	-691
reat	-692
▁information	-693
ules	-694
▁supp	-695
els	-696
▁anim	-697
ER	-698
ach	-699
▁establish	-700
ose	-701
echn	-702
▁né	-703
ales	-704
util	-705
▁certific	-706
▁date	-707
▁market	-708
▁finan	-709
iff	-710
▁has	-711
▁11	-712
▁appropri	-713
igh	-714
rib	-715
▁conv	-716
▁nota	-717
▁proced	-718
▁production	-719
/4	-720
▁inv	-721
▁notamment	-722
ob	-723
ères	-724
ances	-725
▁national	-726
▁dro	-727
▁man	-728
lac	-729
itte	-730
▁mont	-731
▁require	-732
(1	-733
▁Ag	-734
▁nécess	-735
ass	-736
▁within	-737
▁peut	-738
gin	-739
▁syst	-740
▁17	-741
▁lim	-742
▁14	-743
ais	-744
▁suivant	-745
act	-746
▁parti	-747
eur	-748
▁offici	-749
▁techn	-750
ang	-751
▁leur	-752
8/	-753
ail	-754
emp	-755
ittee	-756
▁he	-757
ème	-758
▁EUROP	-759
▁2004	-760
▁0	-761
▁institu	-762
cemb	-763
▁15	-764
reement	-765
LE	-766
▁cette	-767
ide	-768
▁destin	-769
▁part	-770
portation	-771
▁coun	-772
▁been	-773
ecess	-774
teur	-775
estion	-776
▁plus	-777
▁ont	-778
▁go	-779
lication	-780
▁form	-781
toc	-782
iod	-783
ents	-784
▁necess	-785
6/	-786
uvent	-787
termin	-788
▁non	-789
of	-790
▁pos	-791
oire	-792
▁ori	-793
2/	-794
am	-795
▁perm	-796
blig	-797
▁20	-798
val	-799
▁PR	-800
oir	-801
▁1,	-802
▁period	-803
ount	-804
▁necessary	-805
vec	-806
ical	-807
▁13	-808
▁2,	-809
▁li	-810
▁year	-811
▁rés	-812
▁pays	-813
ticles	-814
▁(1)	-815
▁where	-816
ett	-817
▁.	-818
▁program	-819
près	-820
▁effect	-821
▁peuvent	-822
lev	-823
ange	-824
ug	-825
▁concernant	-826
▁contrô	-827
ory	-828
▁avec	-829
ieu	-830
ks	-831
fore	-832
▁marché	-833
king	-834
5)	-835
▁laid	-836
▁OF	-837
▁4.	-838
▁apply	-839
iz	-840
▁Il	-841
▁export	-842
▁count	-843
▁prot	-844
▁Committee	-845
▁(2)	-846
▁traité	-847
application	-848
▁lors	-849
ution	-850
▁LA	-851
SION	-852
als	-853
▁sta	-854
ese	-855
ind	-856
reaty	-857
▁lieu	-858
ous	-859
▁article	-860
minist	-861
▁subst	-862
▁Treaty	-863
3/	-864
iques	-865
ot	-866
▁origin	-867
▁dec	-868
jet	-869
ière	-870
insi	-871
▁compét	-872
▁2005	-873
▁set	-874
omp	-875
▁docu	-876
▁DE	-877
uation	-878
0/	-879
▁communautaire	-880
▁aid	-881
rodu	-882
ree	-883
ED	-884
▁ainsi	-885
▁was	-886
▁incl	-887
▁oblig	-888
ISSION	-889
▁respect	-890
▁base	-891
IN	-892
cip	-893
▁Un	-894
ive	-895
▁COMMISSION	-896
▁16	-897
▁Agreement	-898
▁bet	-899
sible	-900
ente	-901
▁péri	-902
oc	-903
éc	-904
▁inc	-905
▁rules	-906
▁ens	-907
▁port	-908
publ	-909
▁gro	-910
yp	-911
ature	-912
▁those	-913
▁gr	-914
▁val	-915
led	-916
▁amended	-917
▁activ	-918
▁than	-919
▁nom	-920
4/	-921
▁sous	-922
ress	-923
jud	-924
▁En	-925
▁pres	-926
ati	-927
▁quantit	-928
▁must	-929
▁premier	-930
ten	-931
▁COMMUN	-932
▁ju	-933
▁ve	-934
ween	-935
▁concerned	-936
▁tit	-937
▁territ	-938
entes	-939
▁cha	-940
ef	-941
ject	-942
▁31	-943
▁ten	-944
▁between	-945
▁ab	-946
9/	-947
▁thereof	-948
onne	-949
▁remp	-950
7/	-951
▁tex	-952
tifs	-953
hed	-954
▁force	-955
▁ses	-956
▁dur	-957
und	-958
▁pur	-959
dure	-960
▁30	-961
ueur	-962
ating	-963
▁authorities	-964
sement	-965
ally	-966
1/	-967
▁si	-968
ÉS	-969
IL	-970
5/	-971
▁commer	-972
▁procedure	-973
▁doit	-974
▁(2	-975
iti	-976
▁vig	-977
erne	-978
▁ca	-979
▁qual	-980
▁oper	-981
▁(3)	-982
▁diff	-983
teurs	-984
ries	-985
▁procédure	-986
▁2003	-987
lu	-988
▁donn	-989
ATION	-990
▁vigueur	-991
▁contra	-992
▁protection	-993
▁«	-994
▁util	-995
▁demande	-996
▁22	-997
▁comité	-998
▁cor	-999
ournal	-1000
ui	-1001
▁up	-1002
6)	-1003
fter	-1004
▁mat	-1005
▁comme	-1006
ain	-1007
▁they	-1008
▁ver	-1009
▁De	-1010
cul	-1011
▁intern	-1012
▁services	-1013
▁limit	-1014
accord	-1015
▁'	-1016
▁autres	-1017
TI	-1018
▁18	-1019
AS	-1020
▁compet	-1021
xim	-1022
----	-1023
ods	-1024
ective	-1025
vention	-1026
▁coop	-1027
▁mise	-1028
▁public	-1029
éné	-1030
▁certificat	-1031
▁list	-1032
▁rapp	-1033
ari	-1034
▁administ	-1035
▁autorités	-1036
▁période	-1037
▁sit	-1038
▁cl	-1039
▁Journal	-1040
▁23	-1041
▁one	-1042
ird	-1043
▁bo	-1044
quent	-1045
▁includ	-1046
▁cap	-1047
▁typ	-1048
EE	-1049
▁198	-1050
ille	-1051
lation	-1052
lé	-1053
▁publication	-1054
dition	-1055
▁arr	-1056
).	-1057
iden	-1058
▁Ch	-1059
▁prévues	-1060
▁ann	-1061
▁appropriate	-1062
▁relev	-1063
▁transport	-1064
ong	-1065
ivent	-1066
▁competent	-1067
▁establishing	-1068
▁spé	-1069
▁each	-1070
▁col	-1071
▁défin	-1072
▁parties	-1073
▁min	-1074
ke	-1075
por	-1076
incip	-1077
tu	-1078
ial	-1079
iss	-1080
ables	-1081
▁we	-1082
olog	-1083
▁char	-1084
ération	-1085
▁21	-1086
▁order	-1087
▁convient	-1088
▁prix	-1089
▁made	-1090
▁sel	-1091
▁agric	-1092
▁doivent	-1093
▁dou	-1094
▁case	-1095
▁,	-1096
tification	-1097
▁ensure	-1098
enc	-1099
▁inf	-1100
▁el	-1101
MENT	-1102
so	-1103
fér	-1104
ante	-1105
▁compte	-1106
arm	-1107
▁établ	-1108
▁organis	-1109
▁lég	-1110
▁ég	-1111
▁num	-1112
ase	-1113
▁if	-1114
éd	-1115
lace	-1116
▁third	-1117
▁these	-1118
▁princip	-1119
ime	-1120
▁dev	-1121
▁stat	-1122
▁LE	-1123
▁3,	-1124
▁utilis	-1125
▁soit	-1126
▁use	-1127
▁RE	-1128
ork	-1129
eurs	-1130
autor	-1131
tes	-1132
ative	-1133
▁(4)	-1134
▁mati	-1135
000	-1136
ole	-1137
▁25	-1138
pond	-1139
▁sign	-1140
bilité	-1141
▁déla	-1142
▁concerne	-1143
ait	-1144
UT	-1145
▁CON	-1146
iste	-1147
▁cal	-1148
▁ph	-1149
▁droit	-1150
▁deux	-1151
▁tous	-1152
▁ref	-1153
▁contrôle	-1154
adre	-1155
hic	-1156
▁particip	-1157
▁appli	-1158
inion	-1159
▁maxim	-1160
ffici	-1161
▁jus	-1162
▁rest	-1163
▁norm	-1164
▁AR	-1165
ural	-1166
▁take	-1167
▁fir	-1168
▁1999	-1169
stru	-1170
nes	-1171
lect	-1172
ois	-1173
vent	-1174
IR	-1175
▁It	-1176
mit	-1177
eral	-1178
▁whereas	-1179
▁dép	-1180
▁économ	-1181
land	-1182
▁dern	-1183
▁fait	-1184
uant	-1185
▁24	-1186
▁DES	-1187
ret	-1188
▁day	-1189
▁informations	-1190
anti	-1191
▁éch	-1192
ustom	-1193
▁27	-1194
▁repr	-1195
▁system	-1196
▁equ	-1197
judice	-1198
ast	-1199
▁group	-1200
▁time	-1201
▁propos	-1202
▁question	-1203
▁opinion	-1204
mission	-1205
▁sus	-1206
▁process	-1207
7)	-1208
▁requirements	-1209
▁adopt	-1210
ception	-1211
▁programme	-1212
▁administra	-1213
ying	-1214
▁mê	-1215
tique	-1216
uvre	-1217
▁titre	-1218
▁préc	-1219
▁fra	-1220
conomic	-1221
▁5.	-1222
▁selon	-1223
▁spéci	-1224
▁28	-1225
▁iss	-1226
tiques	-1227
alement	-1228
▁partie	-1229
▁env	-1230
▁29	-1231
▁ris	-1232
ight	-1233
▁relevant	-1234
AL	-1235
ils	-1236
999	-1237
▁Pro	-1238
▁obj	-1239
▁contract	-1240
onc	-1241
use	-1242
OR	-1243
▁underta	-1244
ber	-1245
▁also	-1246
alités	-1247
▁direct	-1248
▁où	-1249
ish	-1250
▁countries	-1251
tement	-1252
▁cadre	-1253
▁fig	-1254
▁Ar	-1255
erc	-1256
▁instituant	-1257
▁fourn	-1258
▁level	-1259
▁z	-1260
▁leg	-1261
▁2002	-1262
avis	-1263
onnes	-1264
entr	-1265
sig	-1266
▁suit	-1267
téri	-1268
▁tro	-1269
▁établis	-1270
▁tiers	-1271
▁add	-1272
▁remplac	-1273
▁III	-1274
▁ser	-1275
▁compr	-1276
ou	-1277
▁dat	-1278
▁chaque	-1279
▁tar	-1280
▁che	-1281
▁law	-1282
▁EUROPE	-1283
▁cel	-1284
▁request	-1285
urer	-1286
▁basis	-1287
bility	-1288
▁used	-1289
▁toute	-1290
▁vol	-1291
ven	-1292
▁pa	-1293
▁subject	-1294
▁détermin	-1295
▁visées	-1296
▁substances	-1297
▁concerning	-1298
▁pol	-1299
ament	-1300
ination	-1301
▁douan	-1302
iew	-1303
▁account	-1304
appli	-1305
dit	-1306
▁indic	-1307
cembre	-1308
importation	-1309
▁197	-1310
▁EUROPEAN	-1311
ved	-1312
▁décembre	-1313
..	-1314
cember	-1315
▁replac	-1316
▁dom	-1317
▁nécessaires	-1318
▁26	-1319
▁2001	-1320
▁taken	-1321
get	-1322
▁produit	-1323
▁délai	-1324
▁December	-1325
▁cir	-1326
▁gar	-1327
bre	-1328
▁rapport	-1329
▁specific	-1330
ruct	-1331
▁avant	-1332
▁effectu	-1333
▁purs	-1334
ustoms	-1335
▁2000	-1336
amin	-1337
▁established	-1338
▁minim	-1339
exp	-1340
▁fac	-1341
entre	-1342
▁commercial	-1343
▁first	-1344
ÉEN	-1345
▁crit	-1346
▁EUROPÉEN	-1347
▁officiel	-1348
équ	-1349
oci	-1350
▁authority	-1351
old	-1352
▁replaced	-1353
/1999	-1354
ours	-1355
▁goods	-1356
▁jour	-1357
▁conf	-1358
liv	-1359
▁leurs	-1360
▁implement	-1361
ième	-1362
▁k	-1363
▁aff	-1364
8)	-1365
ency	-1366
ised	-1367
▁lic	-1368
▁visés	-1369
▁type	-1370
alth	-1371
ms	-1372
(2)	-1373
ii	-1374
sition	-1375
ugh	-1376
▁régime	-1377
▁modalités	-1378
enti	-1379
▁possible	-1380
▁trav	-1381
▁données	-1382
agement	-1383
▁soum	-1384
rol	-1385
▁dont	-1386
▁prévue	-1387
urr	-1388
sign	-1389
▁AD	-1390
UL	-1391
▁À	-1392
idu	-1393
▁more	-1394
.1	-1395
ered	-1396
one	-1397
▁only	-1398
mping	-1399
▁(5)	-1400
▁contrib	-1401
▁after	-1402
pose	-1403
▁Dans	-1404
▁met	-1405
▁soci	-1406
endant	-1407
▁après	-1408
▁gen	-1409
▁nive	-1410
▁légis	-1411
▁mois	-1412
▁place	-1413
endre	-1414
▁(3	-1415
eting	-1416
ustri	-1417
▁financi	-1418
ctob	-1419
▁EUROPÉENN	-1420
fice	-1421
▁Articles	-1422
▁articles	-1423
▁ren	-1424
tal	-1425
▁month	-1426
▁grant	-1427
▁HAS	-1428
▁submit	-1429
ann	-1430
▁matière	-1431
IC	-1432
pt	-1433
▁entrepr	-1434
(1)	-1435
▁référ	-1436
▁exig	-1437
position	-1438
▁rem	-1439
ended	-1440
▁document	-1441
ab	-1442
▁béné	-1443
▁nécessaire	-1444
▁relatives	-1445
ys	-1446
▁carri	-1447
ages	-1448
respond	-1449
AP	-1450
▁financial	-1451
lar	-1452
ettre	-1453
▁prof	-1454
▁correspond	-1455
▁texte	-1456
VE	-1457
vered	-1458
rog	-1459
▁relating	-1460
▁accomp	-1461
▁moins	-1462
▁imports	-1463
▁means	-1464
▁économique	-1465
▁imm	-1466
▁determin	-1467
▁oe	-1468
ow	-1469
▁autre	-1470
▁rece	-1471
▁contain	-1472
▁enter	-1473
▁droits	-1474
▁même	-1475
▁defin	-1476
▁nou	-1477
RE	-1478
TED	-1479
▁undertaking	-1480
velop	-1481
ced	-1482
léments	-1483
▁conclu	-1484
▁vi	-1485
▁regul	-1486
▁dernier	-1487
autres	-1488
ration	-1489
oint	-1490
SE	-1491
▁règles	-1492
▁mesure	-1493
ières	-1494
▁fon	-1495
▁celui	-1496
▁sans	-1497
▁common	-1498
▁K	-1499
aide	-1500
▁addition	-1501
oy	-1502
▁portant	-1503
▁THIS	-1504
▁représent	-1505
▁stand	-1506
aine	-1507
▁adopted	-1508
▁cré	-1509
exportation	-1510
eration	-1511
▁rel	-1512
▁tax	-1513
▁sup	-1514
▁Lors	-1515
▁calcul	-1516
▁here	-1517
ateurs	-1518
ceed	-1519
ings	-1520
▁same	-1521
3,	-1522
cien	-1523
▁REG	-1524
▁certaines	-1525
▁situation	-1526
▁4,	-1527
▁pursuant	-1528
▁last	-1529
II	-1530
▁report	-1531
uly	-1532
uf	-1533
▁control	-1534
▁sim	-1535
LEMENT	-1536
▁rais	-1537
▁autoris	-1538
▁visée	-1539
▁montant	-1540
▁therefore	-1541
iné	-1542
▁trade	-1543
▁afin	-1544
▁objec	-1545
ace	-1546
ell	-1547
▁moy	-1548
▁vue	-1549
▁gestion	-1550
▁marchand	-1551
▁indi	-1552
Union	-1553
odes	-1554
▁Where	-1555
▁prop	-1556
ines	-1557
▁ADOP	-1558
ête	-1559
▁communautaires	-1560
▁éléments	-1561
tified	-1562
▁ali	-1563
formation	-1564
ition	-1565
publique	-1566
are	-1567
▁spécifi	-1568
▁documents	-1569
▁temp	-1570
nement	-1571
▁develop	-1572
▁satis	-1573
9)	-1574
TÉ	-1575
IES	-1576
ely	-1577
public	-1578
▁will	-1579
▁également	-1580
▁pê	-1581
AUT	-1582
▁international	-1583
lément	-1584
▁trois	-1585
▁reference	-1586
▁mon	-1587
▁data	-1588
▁PRÉS	-1589
▁fonction	-1590
urant	-1591
▁U	-1592
usi	-1593
▁modifié	-1594
erg	-1595
▁importations	-1596
▁référence	-1597
enn	-1598
▁ADOPTED	-1599
▁provision	-1600
▁vale	-1601
▁Republic	-1602
▁PRÉSENT	-1603
▁—	-1604
▁juin	-1605
▁June	-1606
▁were	-1607
ib	-1608
ual	-1609
▁certains	-1610
▁repres	-1611
▁total	-1612
▁niveau	-1613
▁For	-1614
rait	-1615
▁ARR	-1616
ival	-1617
▁health	-1618
▁before	-1619
▁quanti	-1620
▁service	-1621
antes	-1622
eng	-1623
sions	-1624
▁examin	-1625
▁cours	-1626
2,	-1627
organ	-1628
▁IN	-1629
],	-1630
ions	-1631
ates	-1632
▁amount	-1633
▁ARRÊ	-1634
▁réglement	-1635
▁Ré	-1636
▁ARRÊTÉ	-1637
urance	-1638
▁during	-1639
▁customs	-1640
anv	-1641
▁stoc	-1642
atoire	-1643
▁introdu	-1644
▁fo	-1645
▁iden	-1646
▁enti	-1647
▁partir	-1648
▁COMMUNAUT	-1649
▁COMMUNIT	-1650
autorité	-1651
0)	-1652
▁nature	-1653
▁toutes	-1654
▁new	-1655
▁producteurs	-1656
▁cost	-1657
▁bud	-1658
/2001	-1659
▁mention	-1660
valuation	-1661
▁standard	-1662
cri	-1663
anu	-1664
▁(1),	-1665
édi	-1666
ification	-1667
▁number	-1668
▁relative	-1669
ption	-1670
▁ext	-1671
▁effet	-1672
▁lat	-1673
▁person	-1674
cept	-1675
cc	-1676
."	-1677
▁contin	-1678
écu	-1679
inter	-1680
vement	-1681
▁statis	-1682
▁fe	-1683
▁nav	-1684
owe	-1685
loy	-1686
vemb	-1687
owever	-1688
▁procéd	-1689
anvier	-1690
anuary	-1691
▁janvier	-1692
▁January	-1693
▁without	-1694
▁proven	-1695
érêt	-1696
▁marchandises	-1697
▁cat	-1698
▁surve	-1699
▁oeuvre	-1700
▁consult	-1701
illet	-1702
▁pêche	-1703
▁CH	-1704
0,	-1705
ID	-1706
▁déclar	-1707
▁initi	-1708
▁Union	-1709
év	-1710
ULATION	-1711
5,	-1712
▁compan	-1713
▁secteur	-1714
▁(6)	-1715
▁différ	-1716
▁équ	-1717
agraph	-1718
▁rev	-1719
titution	-1720
▁notification	-1721
▁disp	-1722
▁fins	-1723
ome	-1724
▁technical	-1725
(2	-1726
▁country	-1727
▁dist	-1728
inéa	-1729
▁dra	-1730
▁organisation	-1731
▁design	-1732
7,	-1733
▁bi	-1734
poses	-1735
▁Offici	-1736
ited	-1737
urité	-1738
▁Com	-1739
anges	-1740
1)	-1741
▁when	-1742
▁REGULATION	-1743
orig	-1744
▁inves	-1745
▁tw	-1746
▁end	-1747
▁juillet	-1748
(1),	-1749
uver	-1750
▁vari	-1751
ISION	-1752
▁gu	-1753
▁gén	-1754
écurité	-1755
▁interest	-1756
▁européennes	-1757
▁represent	-1758
▁hum	-1759
▁applicables	-1760
▁July	-1761
objet	-1762
▁obligations	-1763
▁purposes	-1764
▁Official	-1765
▁travail	-1766
▁conformes	-1767
▁République	-1768
8,	-1769
▁price	-1770
ctions	-1771
QU	-1772
▁lab	-1773
▁Communautés	-1774
▁Su	-1775
rim	-1776
▁compétentes	-1777
▁including	-1778
▁but	-1779
▁ra	-1780
▁second	-1781
▁Communities	-1782
▁territoire	-1783
6,	-1784
▁Tout	-1785
▁points	-1786
▁emp	-1787
▁satisf	-1788
▁provide	-1789
irm	-1790
vern	-1791
▁91	-1792
--------	-1793
ified	-1794
▁decision	-1795
agn	-1796
▁celles	-1797
▁sécurité	-1798
liament	-1799
▁maj	-1800
▁implementation	-1801
ennent	-1802
▁garanti	-1803
▁issu	-1804
loit	-1805
▁dén	-1806
▁insp	-1807
▁AN	-1808
▁animaux	-1809
ward	-1810
▁maximum	-1811
▁Parliament	-1812
▁anal	-1813
▁COMMUNITIES	-1814
",	-1815
▁déliv	-1816
▁present	-1817
▁directement	-1818
▁can	-1819
▁respon	-1820
▁vo	-1821
▁opér	-1822
▁)	-1823
by	-1824
ÈG	-1825
▁clas	-1826
▁Ex	-1827
▁avail	-1828
▁loc	-1829
ves	-1830
▁RÈG	-1831
▁carried	-1832
▁Mar	-1833
éth	-1834
4,	-1835
▁COMMUNAUTÉS	-1836
▁redu	-1837
▁administrative	-1838
▁génér	-1839
▁EUROPÉENNES	-1840
▁san	-1841
▁directly	-1842
▁système	-1843
ING	-1844
angements	-1845
▁;	-1846
ession	-1847
▁ess	-1848
▁deta	-1849
▁giv	-1850
▁RÈGLEMENT	-1851
▁animals	-1852
▁fi	-1853
▁anti	-1854
/2003	-1855
▁alinéa	-1856
ultural	-1857
éta	-1858
/92	-1859
▁granted	-1860
(3)	-1861
lem	-1862
origine	-1863
▁lorsque	-1864
ories	-1865
▁excl	-1866
▁Economic	-1867
iter	-1868
▁procedures	-1869
▁préjudice	-1870
▁vertu	-1871
▁programmes	-1872
▁Pour	-1873
paragraph	-1874
▁annex	-1875
▁chec	-1876
IREC	-1877
▁bod	-1878
▁liste	-1879
▁[1	-1880
▁DIREC	-1881
(2),	-1882
▁figurant	-1883
▁instru	-1884
▁meth	-1885
▁subparagraph	-1886
iron	-1887
ior	-1888
▁6.	-1889
▁(2),	-1890
quer	-1891
▁required	-1892
TIVE	-1893
▁covered	-1894
▁att	-1895
▁COUN	-1896
▁two	-1897
EA	-1898
ats	-1899
▁activities	-1900
▁assist	-1901
▁main	-1902
▁years	-1903
▁CHAP	-1904
▁réal	-1905
▁éc	-1906
rer	-1907
▁scien	-1908
▁intended	-1909
▁/	-1910
▁ET	-1911
▁allow	-1912
eure	-1913
iled	-1914
▁(4	-1915
efois	-1916
▁soient	-1917
▁entreprises	-1918
lopp	-1919
▁least	-1920
velopp	-1921
▁Parlement	-1922
▁IV	-1923
▁pendant	-1924
▁territory	-1925
ety	-1926
▁comb	-1927
tern	-1928
▁quantités	-1929
▁commune	-1930
▁long	-1931
▁consomm	-1932
▁view	-1933
ule	-1934
▁ben	-1935
iser	-1936
▁100	-1937
orte	-1938
▁mater	-1939
▁modifiée	-1940
▁work	-1941
▁DIRECTIVE	-1942
agne	-1943
▁0,	-1944
tig	-1945
▁sem	-1946
ividu	-1947
▁//	-1948
quête	-1949
▁prati	-1950
▁compétente	-1951
▁available	-1952
ium	-1953
▁action	-1954
▁én	-1955
▁listed	-1956
▁consum	-1957
▁facil	-1958
▁ful	-1959
reg	-1960
▁concl	-1961
▁indust	-1962
▁prices	-1963
▁exigences	-1964
▁animal	-1965
▁viand	-1966
utilisation	-1967
ible	-1968
▁capac	-1969
▁pouv	-1970
1,	-1971
yant	-1972
tocol	-1973
▁compris	-1974
ute	-1975
▁PRO	-1976
▁CONSE	-1977
▁lesqu	-1978
olution	-1979
▁arrangements	-1980
▁differ	-1981
CIL	-1982
▁individu	-1983
▁surveill	-1984
▁secur	-1985
▁mil	-1986
▁laying	-1987
▁CONSEIL	-1988
▁according	-1989
▁general	-1990
▁communi	-1991
▁adap	-1992
▁activités	-1993
ellement	-1994
ches	-1995
▁marketing	-1996
▁code	-1997
▁COUNCIL	-1998
▁paie	-1999
▁développ	-2000
ateur	-2001
▁over	-2002
▁der	-2003
amen	-2004
tical	-2005
écution	-2006
tég	-2007
▁possi	-2008
▁rédu	-2009
▁plan	-2010
work	-2011
▁net	-2012
▁relatif	-2013
encl	-2014
oires	-2015
▁reas	-2016
▁actu	-2017
▁remplacé	-2018
▁résul	-2019
/2000	-2020
▁5,	-2021
▁ayant	-2022
▁sche	-2023
été	-2024
**	-2025
▁caract	-2026
▁contre	-2027
▁tard	-2028
▁quantities	-2029
▁effective	-2030
▁charg	-2031
no	-2032
▁fab	-2033
▁incre	-2034
ters	-2035
▁condition	-2036
enclature	-2037
TA	-2038
▁indiqu	-2039
▁budget	-2040
▁actions	-2041
idence	-2042
ulture	-2043
▁mean	-2044
inary	-2045
▁producers	-2046
vine	-2047
fication	-2048
▁cla	-2049
▁proposition	-2050
▁months	-2051
▁techniques	-2052
▁exemp	-2053
serv	-2054
▁surveillance	-2055
armon	-2056
▁procédures	-2057
change	-2058
▁vers	-2059
éré	-2060
térieur	-2061
éhic	-2062
▁off	-2063
▁ret	-2064
éro	-2065
▁would	-2066
après	-2067
▁visé	-2068
▁coopération	-2069
▁vehic	-2070
tice	-2071
▁nation	-2072
▁susp	-2073
▁(7)	-2074
▁marchés	-2075
ources	-2076
▁eng	-2077
inding	-2078
▁taux	-2079
TER	-2080
ty	-2081
▁aj	-2082
▁donc	-2083
▁conn	-2084
▁concerné	-2085
▁proposal	-2086
▁refund	-2087
▁need	-2088
co	-2089
▁tend	-2090
▁them	-2091
▁profession	-2092
oles	-2093
▁communic	-2094
urther	-2095
ile	-2096
▁véhic	-2097
ound	-2098
rough	-2099
▁destination	-2100
▁EC	-2101
▁comple	-2102
rance	-2103
ased	-2104
▁méth	-2105
sements	-2106
▁address	-2107
▁saf	-2108
▁applied	-2109
▁associ	-2110
▁resul	-2111
▁cases	-2112
ious	-2113
▁amending	-2114
▁91/4	-2115
▁éché	-2116
▁comply	-2117
▁official	-2118
▁submitted	-2119
2.	-2120
▁conten	-2121
▁mut	-2122
▁obligatoire	-2123
▁br	-2124
hen	-2125
▁whe	-2126
uer	-2127
▁tenu	-2128
▁industry	-2129
▁transfer	-2130
▁given	-2131
ization	-2132
▁aliment	-2133
él	-2134
appro	-2135
▁purpose	-2136
ctro	-2137
▁plac	-2138
▁major	-2139
▁entit	-2140
▁minimum	-2141
▁prendre	-2142
▁90	-2143
▁compens	-2144
omo	-2145
▁special	-2146
orting	-2147
▁personnes	-2148
ron	-2149
quelle	-2150
▁fond	-2151
▁ci	-2152
▁exper	-2153
ina	-2154
ume	-2155
▁approved	-2156
▁laquelle	-2157
action	-2158
uty	-2159
▁jur	-2160
ounts	-2161
▁tarif	-2162
ufact	-2163
▁elle	-2164
▁sect	-2165
▁échéant	-2166
▁poli	-2167
▁TO	-2168
▁agricultural	-2169
sant	-2170
▁exist	-2171
▁Se	-2172
▁inst	-2173
ateg	-2174
▁moyen	-2175
▁Lorsque	-2176
▁convention	-2177
ette	-2178
▁valid	-2179
ove	-2180
rac	-2181
ironment	-2182
▁assess	-2183
▁persons	-2184
ected	-2185
usion	-2186
▁restric	-2187
▁perman	-2188
▁employ	-2189
▁Protocol	-2190
uis	-2191
▁DU	-2192
▁fish	-2193
ph	-2194
dits	-2195
arante	-2196
▁coord	-2197
▁ét	-2198
▁considered	-2199
▁Si	-2200
▁1998	-2201
▁gra	-2202
iture	-2203
▁phy	-2204
▁binding	-2205
▁DEC	-2206
inal	-2207
ital	-2208
▁organisations	-2209
▁manufact	-2210
▁fis	-2211
quel	-2212
tocole	-2213
pè	-2214
/96	-2215
0000	-2216
▁valeur	-2217
ights	-2218
▁costs	-2219
▁hereby	-2220
▁value	-2221
▁investig	-2222
ustrie	-2223
▁EEA	-2224
▁essenti	-2225
▁6,	-2226
▁dérog	-2227
▁As	-2228
▁regards	-2229
▁detailed	-2230
▁wor	-2231
▁social	-2232
▁does	-2233
▁med	-2234
▁respons	-2235
▁exerc	-2236
▁désign	-2237
eld	-2238
▁catég	-2239
enses	-2240
▁adv	-2241
▁prévo	-2242
▁three	-2243
▁free	-2244
▁certificats	-2245
itaire	-2246
▁classi	-2247
▁protocole	-2248
isant	-2249
▁hold	-2250
▁issued	-2251
ommun	-2252
▁DÉ	-2253
▁being	-2254
▁If	-2255
▁nouvel	-2256
▁ress	-2257
▁modifiant	-2258
▁faire	-2259
▁arrêt	-2260
uff	-2261
▁trait	-2262
▁sens	-2263
▁prior	-2264
▁acqu	-2265
▁pass	-2266
▁quantité	-2267
enting	-2268
▁compar	-2269
abilité	-2270
ifications	-2271
▁fixed	-2272
▁who	-2273
OL	-2274
▁UN	-2275
onnement	-2276
étés	-2277
▁make	-2278
eria	-2279
▁duty	-2280
▁nomenclature	-2281
tim	-2282
enquête	-2283
/95	-2284
▁enc	-2285
▁cover	-2286
/93	-2287
ep	-2288
▁développement	-2289
▁projet	-2290
▁1997	-2291
▁celle	-2292
▁manière	-2293
▁circul	-2294
▁bénéfici	-2295
▁X	-2296
▁na	-2297
▁entry	-2298
lec	-2299
▁ban	-2300
▁legal	-2301
▁exceed	-2302
▁provenance	-2303
regist	-2304
▁vess	-2305
▁PAR	-2306
industrie	-2307
▁coû	-2308
rées	-2309
▁above	-2310
/2004	-2311
▁constitu	-2312
▁paragraphes	-2313
anté	-2314
▁App	-2315
▁air	-2316
▁Convention	-2317
▁table	-2318
▁compli	-2319
▁deuxième	-2320
▁development	-2321
▁div	-2322
atives	-2323
▁However	-2324
aiss	-2325
dumping	-2326
sp	-2327
▁transit	-2328
gu	-2329
▁decl	-2330
atory	-2331
▁santé	-2332
▁prejudice	-2333
▁certificate	-2334
intérêt	-2335
▁géné	-2336
érin	-2337
▁food	-2338
▁Eur	-2339
étérin	-2340
▁i	-2341
▁participation	-2342
erve	-2343
▁substance	-2344
uring	-2345
▁nombre	-2346
for	-2347
▁quantity	-2348
▁fact	-2349
▁contrôles	-2350
▁vétérin	-2351
▁résultat	-2352
env	-2353
▁Comité	-2354
▁lo	-2355
ture	-2356
▁mill	-2357
OM	-2358
ironnement	-2359
54	-2360
▁critères	-2361
66	-2362
ali	-2363
ack	-2364
▁promo	-2365
▁disc	-2366
anding	-2367
ET	-2368
▁domaine	-2369
▁véri	-2370
▁members	-2371
▁liv	-2372
ides	-2373
].	-2374
3),	-2375
▁personne	-2376
ctobre	-2377
▁cause	-2378
▁support	-2379
ussi	-2380
▁impos	-2381
▁environment	-2382
EM	-2383
▁specified	-2384
▁conserv	-2385
go	-2386
▁legis	-2387
▁situ	-2388
▁tempor	-2389
▁méd	-2390
▁recomm	-2391
▁again	-2392
▁qualité	-2393
▁through	-2394
tre	-2395
till	-2396
ctober	-2397
▁cop	-2398
▁whether	-2399
▁October	-2400
▁Parties	-2401
▁processing	-2402
▁own	-2403
▁March	-2404
▁Fin	-2405
▁plusi	-2406
▁plusieurs	-2407
mis	-2408
▁octobre	-2409
▁zone	-2410
▁struct	-2411
▁législation	-2412
▁tonnes	-2413
▁cooperation	-2414
ffice	-2415
▁criteria	-2416
▁constat	-2417
▁undertakings	-2418
applique	-2419
▁govern	-2420
▁dumping	-2421
rety	-2422
▁personn	-2423
▁entirety	-2424
ITRE	-2425
▁ans	-2426
▁payment	-2427
▁jusqu	-2428
▁mars	-2429
▁stock	-2430
▁lang	-2431
ones	-2432
▁(8)	-2433
▁economic	-2434
the	-2435
uve	-2436
▁prévoir	-2437
▁DÉC	-2438
▁particulier	-2439
▁producer	-2440
▁May	-2441
▁»	-2442
▁volume	-2443
▁management	-2444
▁forme	-2445
▁AC	-2446
▁prévu	-2447
ither	-2448
gar	-2449
▁his	-2450
établis	-2451
20	-2452
▁area	-2453
raph	-2454
▁six	-2455
▁AND	-2456
▁originating	-2457
▁carry	-2458
▁établi	-2459
èmes	-2460
aient	-2461
▁spécifiques	-2462
▁sé	-2463
▁laws	-2464
▁sau	-2465
▁let	-2466
▁mai	-2467
/2002	-2468
ements	-2469
▁regist	-2470
ized	-2471
▁priv	-2472
▁sc	-2473
▁rights	-2474
▁demandes	-2475
▁1995	-2476
▁prac	-2477
▁harmon	-2478
▁licence	-2479
rale	-2480
▁added	-2481
▁duties	-2482
▁défini	-2483
cent	-2484
▁occ	-2485
ibles	-2486
▁1996	-2487
▁ajout	-2488
▁further	-2489
▁declar	-2490
organis	-2491
lic	-2492
▁nationales	-2493
▁sector	-2494
isting	-2495
▁follows	-2496
▁conséqu	-2497
▁plant	-2498
▁[2	-2499
▁Ces	-2500
▁(3),	-2501
68	-2502
gment	-2503
▁cour	-2504
▁against	-2505
▁additional	-2506
tained	-2507
▁defined	-2508
▁polic	-2509
ôt	-2510
ude	-2511
▁eur	-2512
▁seed	-2513
▁security	-2514
rée	-2515
▁ceux	-2516
▁suc	-2517
ipment	-2518
▁destinat	-2519
▁avoir	-2520
▁applications	-2521
▁50	-2522
▁circulation	-2523
raient	-2524
▁adj	-2525
ogn	-2526
▁sou	-2527
emble	-2528
▁reconn	-2529
ivalent	-2530
▁(5	-2531
urn	-2532
iers	-2533
▁concurr	-2534
Article	-2535
▁compter	-2536
▁(200	-2537
stances	-2538
tition	-2539
▁condu	-2540
▁résid	-2541
ident	-2542
▁bovine	-2543
▁éta	-2544
lementing	-2545
▁concernés	-2546
az	-2547
▁invest	-2548
uses	-2549
loitation	-2550
87	-2551
▁paiement	-2552
ld	-2553
▁receiv	-2554
▁str	-2555
▁normes	-2556
▁standards	-2557
▁technique	-2558
▁telle	-2559
▁déclaration	-2560
▁auc	-2561
▁having	-2562
▁7.	-2563
▁mis	-2564
ribution	-2565
cing	-2566
▁sol	-2567
▁confirm	-2568
rier	-2569
▁suff	-2570
(3),	-2571
(4)	-2572
lab	-2573
ished	-2574
▁adapt	-2575
▁accompan	-2576
▁signific	-2577
▁première	-2578
ercice	-2579
ST	-2580
▁Toutefois	-2581
TIC	-2582
▁Ce	-2583
▁United	-2584
▁Direc	-2585
oration	-2586
▁présid	-2587
▁legislation	-2588
▁With	-2589
▁responsible	-2590
loc	-2591
ft	-2592
▁St	-2593
▁basic	-2594
▁rate	-2595
▁institutions	-2596
stuff	-2597
▁fixées	-2598
▁provis	-2599
itor	-2600
ffic	-2601
▁licences	-2602
▁active	-2603
▁supplément	-2604
▁agricoles	-2605
edi	-2606
▁communication	-2607
▁way	-2608
▁dos	-2609
▁réception	-2610
itre	-2611
".	-2612
portion	-2613
▁recogn	-2614
▁annu	-2615
tics	-2616
rés	-2617
▁den	-2618
▁frais	-2619
exécution	-2620
▁permettre	-2621
estic	-2622
▁VI	-2623
▁dénomm	-2624
▁quality	-2625
▁guarante	-2626
▁notifi	-2627
▁position	-2628
▁compe	-2629
▁immédi	-2630
mework	-2631
▁test	-2632
9,	-2633
▁Al	-2634
fficient	-2635
▁checks	-2636
igne	-2637
▁organismes	-2638
▁constit	-2639
▁sept	-2640
▁nég	-2641
▁mal	-2642
cription	-2643
▁32	-2644
▁access	-2645
▁exception	-2646
▁field	-2647
01	-2648
▁conta	-2649
▁navires	-2650
ANT	-2651
▁include	-2652
▁analys	-2653
sider	-2654
▁based	-2655
ril	-2656
less	-2657
atom	-2658
/46	-2659
évaluation	-2660
▁taking	-2661
▁prévoit	-2662
▁fru	-2663
▁conclusion	-2664
hé	-2665
▁appar	-2666
▁permanent	-2667
▁consultation	-2668
pril	-2669
pul	-2670
eff	-2671
ately	-2672
▁accep	-2673
▁VII	-2674
▁suivantes	-2675
▁mul	-2676
ica	-2677
▁originaires	-2678
▁April	-2679
uded	-2680
▁ev	-2681
▁fishing	-2682
▁men	-2683
▁observ	-2684
apter	-2685
▁derog	-2686
/94	-2687
ison	-2688
▁vente	-2689
▁traitement	-2690
TION	-2691
▁meat	-2692
▁garantie	-2693
▁obten	-2694
▁affect	-2695
▁destinés	-2696
▁établissant	-2697
▁objectifs	-2698
▁nouve	-2699
▁fer	-2700
tify	-2701
▁couver	-2702
ets	-2703
▁personnel	-2704
▁EN	-2705
entrepr	-2706
lectron	-2707
▁numéro	-2708
▁types	-2709
▁contribution	-2710
▁jurid	-2711
établissement	-2712
1.	-2713
▁général	-2714
ension	-2715
▁avril	-2716
▁tant	-2717
▁durée	-2718
▁respective	-2719
▁implementing	-2720
▁establishment	-2721
.19	-2722
dite	-2723
▁either	-2724
▁suppli	-2725
▁jours	-2726
ied	-2727
▁Cour	-2728
▁véhicules	-2729
lè	-2730
▁corre	-2731
iform	-2732
▁résultats	-2733
▁permett	-2734
3.	-2735
▁outre	-2736
▁conting	-2737
▁37	-2738
▁combin	-2739
▁investigation	-2740
▁soumis	-2741
other	-2742
▁suite	-2743
▁determined	-2744
▁por	-2745
▁tariff	-2746
▁install	-2747
▁well	-2748
▁veter	-2749
▁company	-2750
▁35	-2751
▁pouvoir	-2752
82	-2753
Tex	-2754
▁matéri	-2755
stuffs	-2756
ède	-2757
ling	-2758
▁Cette	-2759
▁immédiate	-2760
▁elles	-2761
gence	-2762
▁On	-2763
▁conformité	-2764
▁curr	-2765
▁CE	-2766
tage	-2767
/97	-2768
vembre	-2769
ner	-2770
▁material	-2771
▁fall	-2772
EEE	-2773
▁annexes	-2774
▁novembre	-2775
vember	-2776
▁consider	-2777
embre	-2778
▁scientifi	-2779
▁décisions	-2780
▁cro	-2781
information	-2782
▁Au	-2783
▁simp	-2784
▁November	-2785
▁opérations	-2786
att	-2787
▁dès	-2788
▁addressed	-2789
entrée	-2790
ograph	-2791
02	-2792
▁Fe	-2793
▁areas	-2794
▁Ad	-2795
▁lui	-2796
▁société	-2797
▁human	-2798
▁(9)	-2799
▁equipment	-2800
▁measure	-2801
assurer	-2802
▁ach	-2803
/98	-2804
▁Cont	-2805
▁categ	-2806
▁days	-2807
▁invol	-2808
▁accompagn	-2809
81	-2810
▁less	-2811
85	-2812
▁lorsqu	-2813
▁sales	-2814
lear	-2815
▁operations	-2816
autorisation	-2817
▁proportion	-2818
▁agree	-2819
▁constru	-2820
▁said	-2821
▁compos	-2822
tor	-2823
▁Sept	-2824
▁simil	-2825
▁impro	-2826
▁species	-2827
ges	-2828
▁conséquence	-2829
▁dépenses	-2830
▁modification	-2831
▁final	-2832
77	-2833
▁dossi	-2834
▁région	-2835
▁September	-2836
▁instruments	-2837
ili	-2838
▁septembre	-2839
▁7,	-2840
▁statut	-2841
lande	-2842
appliquent	-2843
iction	-2844
▁result	-2845
▁review	-2846
hib	-2847
environnement	-2848
éli	-2849
▁benef	-2850
▁methods	-2851
read	-2852
▁safety	-2853
▁Co	-2854
crib	-2855
▁prises	-2856
▁authorised	-2857
▁zones	-2858
▁companies	-2859
▁échanges	-2860
▁operation	-2861
imin	-2862
▁agreement	-2863
inten	-2864
▁representative	-2865
met	-2866
▁limits	-2867
▁assistance	-2868
BLE	-2869
ince	-2870
ventu	-2871
ss	-2872
▁inspection	-2873
cession	-2874
▁limites	-2875
▁40	-2876
▁restitution	-2877
▁Cha	-2878
▁supply	-2879
▁1994	-2880
▁dispos	-2881
▁paid	-2882
▁right	-2883
centage	-2884
▁appliqu	-2885
ases	-2886
autre	-2887
èglement	-2888
▁LES	-2889
▁regulations	-2890
▁lesquelles	-2891
▁:	-2892
▁results	-2893
▁terms	-2894
▁another	-2895
▁BE	-2896
▁milk	-2897
▁devrait	-2898
▁camp	-2899
▁codes	-2900
▁ii	-2901
reed	-2902
sequent	-2903
▁vehicles	-2904
▁espè	-2905
▁unique	-2906
▁El	-2907
▁1992	-2908
tateurs	-2909
75	-2910
ving	-2911
nel	-2912
);	-2913
▁fl	-2914
▁framework	-2915
sence	-2916
▁bis	-2917
▁inféri	-2918
▁monitor	-2919
tien	-2920
▁70	-2921
▁semences	-2922
eau	-2923
▁until	-2924
bru	-2925
▁proceed	-2926
année	-2927
ox	-2928
▁repe	-2929
▁PRÉSENTE	-2930
14/	-2931
adi	-2932
uil	-2933
▁termes	-2934
▁ni	-2935
▁provides	-2936
▁perform	-2937
▁immédiatement	-2938
▁sour	-2939
unds	-2940
▁meaning	-2941
▁operat	-2942
▁charge	-2943
▁scheme	-2944
▁compliance	-2945
▁rép	-2946
▁They	-2947
▁agré	-2948
issent	-2949
assurance	-2950
▁politique	-2951
▁aides	-2952
▁due	-2953
▁nationale	-2954
▁Man	-2955
QUE	-2956
ability	-2957
isées	-2958
▁disposition	-2959
▁dispon	-2960
▁civ	-2961
▁(9	-2962
su	-2963
enditure	-2964
man	-2965
▁administratives	-2966
60	-2967
issant	-2968
▁financière	-2969
resh	-2970
exercice	-2971
▁capital	-2972
▁modifications	-2973
éra	-2974
▁concurrence	-2975
▁accept	-2976
▁record	-2977
▁supéri	-2978
▁directives	-2979
▁opp	-2980
▁risk	-2981
DU	-2982
84	-2983
▁NC	-2984
▁section	-2985
▁conver	-2986
dom	-2987
▁chap	-2988
OS	-2989
▁France	-2990
▁transformation	-2991
▁later	-2992
dra	-2993
▁Sp	-2994
▁name	-2995
▁précéd	-2996
bruary	-2997
▁dep	-2998
▁February	-2999
▁body	-3000
téress	-3001
▁groupe	-3002
▁mand	-3003
▁mainten	-3004
▁technolog	-3005
30	-3006
évrier	-3007
▁février	-3008
intervention	-3009
▁coûts	-3010
▁region	-3011
anim	-3012
ater	-3013
sive	-3014
▁arrêtées	-3015
roduction	-3016
▁destinataires	-3017
▁claim	-3018
▁matières	-3019
ify	-3020
hésion	-3021
arge	-3022
▁répond	-3023
▁Annexes	-3024
▁34	-3025
▁ladite	-3026
rent	-3027
▁provisional	-3028
▁mais	-3029
▁dise	-3030
▁fav	-3031
▁(6	-3032
▁bec	-3033
▁approval	-3034
adop	-3035
▁quot	-3036
▁conseil	-3037
▁dérogation	-3038
isse	-3039
▁[1],	-3040
▁intervention	-3041
with	-3042
▁ke	-3043
ép	-3044
inafter	-3045
▁prohib	-3046
▁assurer	-3047
los	-3048
ining	-3049
▁residu	-3050
▁alimentaires	-3051
▁assessment	-3052
▁mom	-3053
▁adjust	-3054
▁formation	-3055
▁labor	-3056
ak	-3057
hal	-3058
▁policy	-3059
▁di	-3060
▁33	-3061
▁expenditure	-3062
ancement	-3063
▁had	-3064
lection	-3065
▁veterinary	-3066
▁modè	-3067
4),	-3068
umes	-3069
osition	-3070
▁CHAPITRE	-3071
▁viande	-3072
▁annual	-3073
▁moment	-3074
▁four	-3075
cepti	-3076
▁certification	-3077
▁AS	-3078
▁concentr	-3079
paration	-3080
▁125	-3081
actions	-3082
▁CHAPTER	-3083
▁président	-3084
▁font	-3085
▁80	-3086
▁Sec	-3087
ien	-3088
▁equivalent	-3089
▁bodies	-3090
▁different	-3091
▁pow	-3092
▁cent	-3093
▁estim	-3094
▁collec	-3095
----------------	-3096
▁troisième	-3097
▁dudit	-3098
▁consul	-3099
▁bes	-3100
▁normal	-3101
▁office	-3102
iness	-3103
▁envis	-3104
▁inj	-3105
▁uniform	-3106
▁suscepti	-3107
▁réserve	-3108
▁jud	-3109
aly	-3110
▁dif	-3111
▁tran	-3112
▁consommation	-3113
vis	-3114
▁lia	-3115
▁achie	-3116
ensemble	-3117
▁stor	-3118
▁déta	-3119
▁feed	-3120
▁39	-3121
▁existing	-3122
▁mix	-3123
▁OR	-3124
tial	-3125
▁adoption	-3126
▁transform	-3127
ler	-3128
▁post	-3129
TR	-3130
ize	-3131
▁King	-3132
▁fran	-3133
▁mentionn	-3134
▁Kingdom	-3135
▁utilisés	-3136
▁92	-3137
/90	-3138
▁éventu	-3139
▁(10)	-3140
▁farm	-3141
▁raison	-3142
crip	-3143
▁stocks	-3144
▁high	-3145
▁consumption	-3146
acter	-3147
▁tenir	-3148
89	-3149
▁intérieur	-3150
istered	-3151
▁atte	-3152
▁event	-3153
▁devraient	-3154
cum	-3155
TICLE	-3156
▁levels	-3157
▁published	-3158
▁indications	-3159
▁open	-3160
▁DECISION	-3161
▁pack	-3162
▁Section	-3163
tateur	-3164
▁declaration	-3165
▁autant	-3166
▁vessels	-3167
▁8,	-3168
ising	-3169
▁travaille	-3170
▁prend	-3171
▁91/414/	-3172
utions	-3173
▁tender	-3174
▁coordination	-3175
▁visant	-3176
▁libre	-3177
▁objectives	-3178
cts	-3179
▁concluded	-3180
▁sal	-3181
▁reasons	-3182
▁beso	-3183
▁proper	-3184
AC	-3185
▁(7	-3186
yl	-3187
enci	-3188
▁produced	-3189
inf	-3190
...	-3191
▁1993	-3192
▁annexe	-3193
▁méthodes	-3194
▁Slo	-3195
ITION	-3196
table	-3197
▁fixant	-3198
organisme	-3199
▁radi	-3200
▁énum	-3201
▁1)	-3202
▁chapitre	-3203
▁addi	-3204
▁modifier	-3205
▁ils	-3206
vision	-3207
oyau	-3208
▁garan	-3209
entreprise	-3210
US	-3211
▁ro	-3212
aissance	-3213
▁internation	-3214
▁sociétés	-3215
▁restruct	-3216
oyaume	-3217
itaires	-3218
▁année	-3219
▁superv	-3220
▁Party	-3221
▁[3	-3222
▁fixé	-3223
▁8.	-3224
▁samp	-3225
▁alloc	-3226
71	-3227
▁meeting	-3228
▁individual	-3229
▁agreements	-3230
▁pu	-3231
▁could	-3232
▁provisoire	-3233
criptions	-3234
▁porc	-3235
tivité	-3236
▁recher	-3237
cer	-3238
▁text	-3239
fied	-3240
▁immedi	-3241
▁bus	-3242
adhésion	-3243
▁DÉCISION	-3244
▁withdra	-3245
▁agents	-3246
▁commerce	-3247
▁espèces	-3248
AG	-3249
▁Joint	-3250
▁received	-3251
▁risques	-3252
▁viandes	-3253
▁accompanied	-3254
▁permit	-3255
▁réc	-3256
▁circum	-3257
lob	-3258
pect	-3259
entral	-3260
▁aver	-3261
▁prévus	-3262
▁veill	-3263
▁contracts	-3264
▁vacc	-3265
ral	-3266
▁termin	-3267
over	-3268
cribed	-3269
▁valeurs	-3270
▁capacity	-3271
▁lait	-3272
▁authorisation	-3273
PL	-3274
/2005	-3275
lig	-3276
▁Port	-3277
▁10,	-3278
/15	-3279
▁prev	-3280
88	-3281
octro	-3282
▁fonctionnement	-3283
▁quotas	-3284
▁reason	-3285
▁2)	-3286
▁intég	-3287
▁paragraphs	-3288
▁ir	-3289
▁formul	-3290
▁internal	-3291
▁significant	-3292
positions	-3293
▁faisant	-3294
tres	-3295
▁maladi	-3296
▁exclusi	-3297
▁character	-3298
▁36	-3299
▁poll	-3300
▁*	-3301
▁Règlement	-3302
orie	-3303
ister	-3304
▁indicated	-3305
▁quo	-3306
76	-3307
éex	-3308
▁both	-3309
▁diffic	-3310
ark	-3311
ope	-3312
▁contrat	-3313
atural	-3314
ze	-3315
▁business	-3316
▁structure	-3317
▁suivants	-3318
10	-3319
▁animale	-3320
ingle	-3321
▁bénéfic	-3322
part	-3323
exploitation	-3324
gg	-3325
▁working	-3326
▁Appro	-3327
missions	-3328
▁fulf	-3329
▁sent	-3330
▁consist	-3331
aî	-3332
▁inte	-3333
▁systems	-3334
▁incor	-3335
ading	-3336
▁2002/	-3337
▁compati	-3338
ites	-3339
▁exporting	-3340
▁treat	-3341
▁aussi	-3342
▁imported	-3343
▁Management	-3344
▁déb	-3345
23	-3346
▁storage	-3347
▁énumér	-3348
▁Euratom	-3349
▁infr	-3350
▁Aux	-3351
ps	-3352
▁caractér	-3353
▁producteur	-3354
▁93	-3355
▁conservation	-3356
▁(8	-3357
▁accords	-3358
▁issue	-3359
▁Ils	-3360
▁continue	-3361
▁consign	-3362
▁emb	-3363
aff	-3364
▁lequel	-3365
▁pertin	-3366
▁douanier	-3367
▁équip	-3368
▁appropriées	-3369
▁medic	-3370
▁applicant	-3371
▁avis	-3372
ciation	-3373
çon	-3374
▁physi	-3375
▁sufficient	-3376
▁decisions	-3377
▁related	-3378
▁mettre	-3379
▁systèmes	-3380
▁196	-3381
ew	-3382
▁project	-3383
OW	-3384
▁(4),	-3385
▁crédit	-3386
UE	-3387
▁reç	-3388
▁év	-3389
▁2006	-3390
▁garantir	-3391
▁législa	-3392
▁risque	-3393
▁Portug	-3394
ked	-3395
▁tel	-3396
IM	-3397
▁réun	-3398
▁enregist	-3399
▁monitoring	-3400
▁réex	-3401
▁distribution	-3402
▁registered	-3403
▁denrées	-3404
▁natural	-3405
▁complément	-3406
expor	-3407
▁déterminer	-3408
hip	-3409
▁catégorie	-3410
(4),	-3411
▁particulières	-3412
▁ressources	-3413
▁cin	-3414
▁douanières	-3415
▁envisag	-3416
▁relation	-3417
▁quat	-3418
▁EU	-3419
ren	-3420
▁evidence	-3421
anger	-3422
ood	-3423
ariat	-3424
▁drawn	-3425
▁fixer	-3426
▁low	-3427
octroi	-3428
ergy	-3429
▁industri	-3430
▁Chapter	-3431
▁resources	-3432
asse	-3433
▁pla	-3434
antill	-3435
▁sera	-3436
▁When	-3437
▁campagne	-3438
▁JO	-3439
▁notified	-3440
ici	-3441
▁régul	-3442
rir	-3443
▁caractère	-3444
ending	-3445
arr	-3446
▁9,	-3447
rication	-3448
aled	-3449
▁établies	-3450
▁2004,	-3451
▁found	-3452
▁mission	-3453
▁EUROPÉENNE	-3454
22	-3455
nelle	-3456
▁conclusions	-3457
▁établissements	-3458
▁ventes	-3459
▁rend	-3460
▁communiqu	-3461
▁fabrication	-3462
▁couv	-3463
▁caus	-3464
tables	-3465
NE	-3466
▁class	-3467
side	-3468
imes	-3469
▁obtained	-3470
▁competition	-3471
BL	-3472
▁fois	-3473
▁He	-3474
▁sugar	-3475
▁temps	-3476
▁rele	-3477
▁déj	-3478
▁fun	-3479
own	-3480
▁Ac	-3481
examen	-3482
ections	-3483
▁certificates	-3484
(5)	-3485
▁concernées	-3486
▁telles	-3487
▁express	-3488
▁current	-3489
▁déjà	-3490
▁négoci	-3491
▁Conform	-3492
▁institution	-3493
▁décid	-3494
▁popul	-3495
▁suffis	-3496
ged	-3497
▁average	-3498
éch	-3499
▁defini	-3500
▁Appropri	-3501
▁sanitaire	-3502
eneral	-3503
▁method	-3504
▁scientific	-3505
▁effic	-3506
▁investment	-3507
▁single	-3508
▁obligation	-3509
ready	-3510
▁amounts	-3511
▁caractéris	-3512
▁already	-3513
▁spécifique	-3514
▁établie	-3515
▁comptes	-3516
▁content	-3517
▁présentation	-3518
▁présentant	-3519
▁continu	-3520
▁remain	-3521
▁réglementaires	-3522
▁training	-3523
▁CN	-3524
▁résidus	-3525
▁prés	-3526
onds	-3527
▁em	-3528
▁principes	-3529
▁forward	-3530
TE	-3531
▁sm	-3532
▁Cré	-3533
ortun	-3534
05	-3535
aines	-3536
▁moyens	-3537
▁montants	-3538
▁light	-3539
▁glob	-3540
▁whose	-3541
▁conformity	-3542
tiss	-3543
▁aéri	-3544
mil	-3545
▁staff	-3546
racting	-3547
rement	-3548
ège	-3549
atis	-3550
▁prise	-3551
▁possibilité	-3552
▁plants	-3553
▁représentant	-3554
▁2005.	-3555
adoption	-3556
▁pratiques	-3557
▁increase	-3558
▁treatment	-3559
▁preuve	-3560
▁insurance	-3561
▁subs	-3562
▁holding	-3563
▁dossier	-3564
▁(11)	-3565
organisation	-3566
uration	-3567
▁communiquent	-3568
ung	-3569
▁EX	-3570
écision	-3571
itation	-3572
▁containing	-3573
▁pratique	-3574
▁tels	-3575
▁So	-3576
▁hand	-3577
atoires	-3578
▁cred	-3579
▁auprès	-3580
ids	-3581
▁te	-3582
▁façon	-3583
▁rense	-3584
▁aliments	-3585
▁lesquels	-3586
▁transmission	-3587
▁hy	-3588
▁conti	-3589
▁Standing	-3590
▁95	-3591
▁exchange	-3592
▁multi	-3593
▁classification	-3594
▁refus	-3595
▁applying	-3596
39	-3597
▁Conformément	-3598
ettent	-3599
accès	-3600
ém	-3601
▁Appropriations	-3602
▁approuv	-3603
▁kil	-3604
▁meet	-3605
▁derogation	-3606
▁joint	-3607
▁effectuées	-3608
▁indent	-3609
▁previous	-3610
▁Royaume	-3611
uverne	-3612
▁principles	-3613
▁recommand	-3614
▁%.	-3615
naires	-3616
▁Crédits	-3617
72	-3618
anis	-3619
▁respec	-3620
38	-3621
▁spécial	-3622
tie	-3623
▁Une	-3624
▁chac	-3625
loi	-3626
CH	-3627
▁FOR	-3628
▁vétérinaire	-3629
half	-3630
▁>	-3631
▁recours	-3632
▁elig	-3633
▁ste	-3634
▁octro	-3635
administ	-3636
▁show	-3637
▁bal	-3638
inform	-3639
étaire	-3640
▁intérêt	-3641
mention	-3642
ials	-3643
nels	-3644
prim	-3645
way	-3646
▁publi	-3647
▁important	-3648
▁permettant	-3649
▁requested	-3650
▁u	-3651
▁notify	-3652
▁2001/	-3653
▁augment	-3654
ian	-3655
":	-3656
tissement	-3657
tex	-3658
▁particulière	-3659
▁upon	-3660
▁tiret	-3661
▁FR	-3662
▁raisons	-3663
▁11,	-3664
▁2004.	-3665
▁local	-3666
▁Sw	-3667
ning	-3668
▁regarding	-3669
▁To	-3670
▁cre	-3671
▁NO	-3672
▁examination	-3673
36	-3674
▁behalf	-3675
▁vir	-3676
▁far	-3677
▁change	-3678
▁agricole	-3679
▁circumstances	-3680
TS	-3681
utes	-3682
▁markets	-3683
▁Such	-3684
▁ARTICLE	-3685
ué	-3686
▁72	-3687
▁bil	-3688
▁nu	-3689
UNION	-3690
▁1990	-3691
▁injur	-3692
▁ship	-3693
▁equal	-3694
▁justifi	-3695
▁90/	-3696
▁however	-3697
31	-3698
▁encour	-3699
▁informe	-3700
▁Bo	-3701
▁sen	-3702
▁déf	-3703
▁dém	-3704
lectric	-3705
ureau	-3706
ande	-3707
cel	-3708
▁sucre	-3709
▁Regulations	-3710
▁AU	-3711
ding	-3712
▁écrit	-3713
▁opportun	-3714
▁accordingly	-3715
▁89	-3716
érer	-3717
▁Office	-3718
▁75	-3719
▁douane	-3720
estation	-3721
▁deli	-3722
▁These	-3723
isés	-3724
▁materials	-3725
▁statistiques	-3726
▁entreprise	-3727
▁manufacture	-3728
▁travailleurs	-3729
▁accounts	-3730
▁antidumping	-3731
endent	-3732
▁UNION	-3733
▁Gu	-3734
▁céré	-3735
▁substanti	-3736
▁restrictions	-3737
▁Comp	-3738
pro	-3739
otal	-3740
orment	-3741
▁intéress	-3742
▁titul	-3743
▁fixation	-3744
lan	-3745
▁Total	-3746
▁1991	-3747
inves	-3748
▁Reg	-3749
▁committee	-3750
idel	-3751
IE	-3752
yst	-3753
▁simpli	-3754
▁determine	-3755
ANS	-3756
▁aide	-3757
▁Nor	-3758
▁2000/	-3759
▁[...	-3760
diction	-3761
IV	-3762
▁89/	-3763
▁résult	-3764
▁gouverne	-3765
▁modèle	-3766
ran	-3767
▁cann	-3768
▁confiden	-3769
ub	-3770
▁catégories	-3771
IF	-3772
▁clear	-3773
▁destiné	-3774
▁amendments	-3775
▁législatives	-3776
crit	-3777
▁dele	-3778
▁Contracting	-3779
▁euros	-3780
▁comport	-3781
▁incorpor	-3782
80	-3783
liver	-3784
ignements	-3785
▁some	-3786
▁corresponding	-3787
ful	-3788
▁régions	-3789
TABLE	-3790
▁étant	-3791
▁expos	-3792
▁proceedings	-3793
ided	-3794
▁Agency	-3795
▁latest	-3796
▁dû	-3797
▁oil	-3798
▁Lorsqu	-3799
▁financement	-3800
▁contex	-3801
RES	-3802
▁bien	-3803
oss	-3804
inte	-3805
ological	-3806
▁commerci	-3807
▁included	-3808
▁effets	-3809
▁medicinal	-3810
hets	-3811
4.	-3812
▁Mal	-3813
▁nouvelles	-3814
▁cannot	-3815
▁fulfil	-3816
▁parts	-3817
▁quota	-3818
nelles	-3819
▁rap	-3820
▁principe	-3821
anie	-3822
▁tota	-3823
étique	-3824
93	-3825
▁Each	-3826
.197	-3827
▁ouver	-3828
▁since	-3829
▁analysis	-3830
▁disease	-3831
lies	-3832
▁deliver	-3833
▁At	-3834
▁réglementation	-3835
▁immediately	-3836
iè	-3837
erman	-3838
issement	-3839
▁97/	-3840
▁separ	-3841
▁cr	-3842
▁Nations	-3843
▁objective	-3844
▁reduction	-3845
▁vétérinaires	-3846
▁élev	-3847
▁Décision	-3848
▁Directives	-3849
▁00	-3850
▁Produ	-3851
▁prescriptions	-3852
▁sale	-3853
▁conven	-3854
▁draw	-3855
▁Des	-3856
ath	-3857
▁sein	-3858
▁wine	-3859
▁terme	-3860
▁purch	-3861
▁supprim	-3862
▁1999/46	-3863
▁Ban	-3864
▁[...]	-3865
▁Pres	-3866
▁humaine	-3867
▁délais	-3868
▁experts	-3869
▁informent	-3870
▁profit	-3871
▁renseignements	-3872
▁SU	-3873
URE	-3874
bit	-3875
▁prevent	-3876
▁Part	-3877
long	-3878
▁facilit	-3879
▁governing	-3880
▁installations	-3881
asion	-3882
▁60	-3883
▁rempl	-3884
▁share	-3885
▁concernée	-3886
▁bord	-3887
équent	-3888
▁Portugal	-3889
▁compensation	-3890
inc	-3891
▁Intern	-3892
▁Centre	-3893
▁designated	-3894
lor	-3895
▁IP	-3896
▁(12)	-3897
ai	-3898
▁octroy	-3899
▁transition	-3900
▁scope	-3901
uss	-3902
▁aucune	-3903
▁déchets	-3904
▁effectués	-3905
ost	-3906
▁effec	-3907
▁adoptent	-3908
administration	-3909
itime	-3910
▁Chaque	-3911
▁apport	-3912
▁financier	-3913
▁mêmes	-3914
▁effects	-3915
▁énonc	-3916
▁dénommé	-3917
▁Elle	-3918
▁91/49	-3919
▁attrib	-3920
▁prennent	-3921
roup	-3922
▁pollution	-3923
alité	-3924
▁characteris	-3925
eures	-3926
▁fixée	-3927
▁vérifi	-3928
▁plans	-3929
▁langu	-3930
▁Social	-3931
.»	-3932
▁nouveaux	-3933
▁Go	-3934
58/	-3935
▁mentioned	-3936
▁auxqu	-3937
(6)	-3938
▁vote	-3939
▁Aut	-3940
13	-3941
▁céréales	-3942
▁decide	-3943
térieure	-3944
JO	-3945
gether	-3946
aging	-3947
▁conséquent	-3948
▁sauf	-3949
▁restitu	-3950
▁falling	-3951
▁1999/468/	-3952
▁transpar	-3953
air	-3954
▁dépos	-3955
▁règlements	-3956
▁Slov	-3957
ufs	-3958
ression	-3959
++	-3960
uelle	-3961
▁tarifaires	-3962
LOW	-3963
lations	-3964
▁indirec	-3965
animaux	-3966
▁destinées	-3967
▁she	-3968
▁relations	-3969
▁foodstuffs	-3970
sidi	-3971
▁entra	-3972
▁contenant	-3973
▁générales	-3974
▁bene	-3975
▁demandeur	-3976
▁45	-3977
chement	-3978
▁relatifs	-3979
▁aspect	-3980
▁domestic	-3981
▁guarantee	-3982
▁importation	-3983
▁give	-3984
▁PRODU	-3985
▁donné	-3986
▁unless	-3987
rans	-3988
▁Any	-3989
▁limited	-3990
▁member	-3991
▁er	-3992
établ	-3993
▁ACP	-3994
▁carc	-3995
off	-3996
▁assur	-3997
▁poten	-3998
▁together	-3999
▁réduction	-4000
icaments	-4001
naire	-4002
▁institué	-4003
yc	-4004
▁œ	-4005
(200	-4006
▁party	-4007
86	-4008
valu	-4009
▁increased	-4010
Office	-4011
▁provenant	-4012
▁Bel	-4013
▁charges	-4014
▁WH	-4015
▁disponibles	-4016
▁transactions	-4017
▁limite	-4018
▁dépass	-4019
▁regional	-4020
▁appear	-4021
▁médicaments	-4022
▁vehicle	-4023
▁lib	-4024
ogram	-4025
ications	-4026
▁recherche	-4027
▁authorization	-4028
mentation	-4029
▁var	-4030
▁protég	-4031
ONT	-4032
▁Customs	-4033
▁seront	-4034
▁waste	-4035
▁premium	-4036
▁experi	-4037
isé	-4038
atic	-4039
▁registration	-4040
▁nationaux	-4041
▁super	-4042
▁définies	-4043
52	-4044
/91	-4045
▁Common	-4046
▁Pol	-4047
▁lod	-4048
▁était	-4049
▁reduced	-4050
▁conforme	-4051
▁42	-4052
EMB	-4053
uel	-4054
avoir	-4055
▁authorized	-4056
▁réalisation	-4057
In	-4058
▁credit	-4059
▁payments	-4060
▁reven	-4061
▁dét	-4062
▁entered	-4063
▁construction	-4064
▁Afin	-4065
▁transm	-4066
ager	-4067
▁aur	-4068
iration	-4069
▁mor	-4070
▁full	-4071
▁shown	-4072
▁activity	-4073
tile	-4074
▁award	-4075
judication	-4076
ense	-4077
indre	-4078
▁tableau	-4079
▁atta	-4080
force	-4081
▁communications	-4082
rgan	-4083
▁exports	-4084
▁supplémentaires	-4085
hery	-4086
▁lev	-4087
informations	-4088
▁2003/	-4089
ortateurs	-4090
encies	-4091
▁German	-4092
▁integ	-4093
OJ	-4094
▁deem	-4095
▁remplacée	-4096
▁aim	-4097
▁É	-4098
▁principle	-4099
▁tests	-4100
▁placing	-4101
▁eligible	-4102
Eur	-4103
▁five	-4104
▁compon	-4105
▁CEE	-4106
▁exported	-4107
▁communicate	-4108
tifications	-4109
▁police	-4110
▁subsidi	-4111
▁put	-4112
IDE	-4113
▁remb	-4114
▁characteristics	-4115
évolution	-4116
endu	-4117
erted	-4118
▁operators	-4119
▁lin	-4120
▁réseau	-4121
oul	-4122
▁Sans	-4123
▁Finan	-4124
lacement	-4125
/11	-4126
▁publique	-4127
▁vég	-4128
resse	-4129
▁bre	-4130
ultry	-4131
ologique	-4132
▁imposed	-4133
orer	-4134
▁mixte	-4135
▁poids	-4136
/43	-4137
▁dénom	-4138
▁conversion	-4139
50	-4140
goti	-4141
▁repealed	-4142
▁transpor	-4143
earch	-4144
▁gran	-4145
rig	-4146
▁années	-4147
▁considérée	-4148
ront	-4149
▁calculated	-4150
▁cere	-4151
▁By	-4152
état	-4153
▁approxim	-4154
▁statistical	-4155
uted	-4156
▁résultant	-4157
▁toutefois	-4158
▁contrats	-4159
▁stockage	-4160
▁Court	-4161
hy	-4162
▁sources	-4163
▁delivered	-4164
▁refunds	-4165
▁utilisées	-4166
cted	-4167
▁commit	-4168
ared	-4169
rément	-4170
▁cooper	-4171
▁projets	-4172
OLLOW	-4173
▁TR	-4174
▁copy	-4175
▁garanties	-4176
▁fournir	-4177
▁...	-4178
▁transf	-4179
▁FOLLOW	-4180
▁législations	-4181
▁except	-4182
▁92/	-4183
▁93/	-4184
▁SEC	-4185
emn	-4186
▁entend	-4187
ITIONS	-4188
▁conformer	-4189
ALL	-4190
▁liqu	-4191
▁relevance	-4192
astruct	-4193
▁subsequent	-4194
5),	-4195
▁using	-4196
79	-4197
▁différents	-4198
▁fresh	-4199
▁adoptées	-4200
▁resulting	-4201
isée	-4202
now	-4203
▁Board	-4204
▁star	-4205
▁small	-4206
(1)(	-4207
▁Sta	-4208
▁tas	-4209
ania	-4210
▁million	-4211
▁quantita	-4212
Al	-4213
▁water	-4214
alyse	-4215
établir	-4216
▁volail	-4217
▁économiques	-4218
▁scientifique	-4219
▁lik	-4220
▁interests	-4221
▁environmental	-4222
▁effectuée	-4223
riv	-4224
▁withdraw	-4225
▁équival	-4226
▁weight	-4227
▁indép	-4228
▁offer	-4229
▁tradition	-4230
▁clar	-4231
▁forth	-4232
▁impact	-4233
▁teneur	-4234
▁13,	-4235
approval	-4236
▁43	-4237
▁Without	-4238
▁contained	-4239
▁délivrance	-4240
produ	-4241
idelines	-4242
parations	-4243
▁indication	-4244
urg	-4245
enregist	-4246
▁described	-4247
▁(13)	-4248
▁2003,	-4249
▁euro	-4250
▁word	-4251
▁description	-4252
dess	-4253
▁préal	-4254
AM	-4255
▁multip	-4256
equ	-4257
rices	-4258
ares	-4259
laboration	-4260
ergie	-4261
oblig	-4262
▁essential	-4263
▁OJ	-4264
olid	-4265
▁effort	-4266
emploi	-4267
IG	-4268
▁lay	-4269
▁matter	-4270
▁progress	-4271
ha	-4272
▁favor	-4273
▁seul	-4274
▁aucun	-4275
▁mandat	-4276
▁fixés	-4277
▁cinq	-4278
▁9.	-4279
bilités	-4280
▁acting	-4281
▁values	-4282
▁opération	-4283
▁ul	-4284
▁Govern	-4285
▁injury	-4286
▁établit	-4287
▁bring	-4288
▁64	-4289
laugh	-4290
ength	-4291
▁organization	-4292
26	-4293
ched	-4294
▁AP	-4295
tation	-4296
imp	-4297
▁regular	-4298
▁exploit	-4299
74	-4300
▁considéré	-4301
▁électron	-4302
▁présenter	-4303
/10	-4304
urb	-4305
ventions	-4306
▁aspects	-4307
▁responsable	-4308
▁egg	-4309
absence	-4310
▁méthode	-4311
▁negoti	-4312
▁proposed	-4313
dites	-4314
▁danger	-4315
▁extent	-4316
ogue	-4317
lay	-4318
▁Financial	-4319
/42	-4320
▁nouvelle	-4321
▁reti	-4322
▁couvrir	-4323
▁poultry	-4324
▁majority	-4325
▁veillent	-4326
▁item	-4327
▁SH	-4328
duc	-4329
▁Can	-4330
udes	-4331
▁bear	-4332
▁slaugh	-4333
▁avo	-4334
83	-4335
investissement	-4336
▁ord	-4337
▁ajouté	-4338
fications	-4339
▁œuvre	-4340
appliquer	-4341
▁circon	-4342
jec	-4343
▁Am	-4344
▁kilogram	-4345
ken	-4346
▁OU	-4347
▁benefici	-4348
▁ge	-4349
▁most	-4350
▁supplement	-4351
analyse	-4352
▁rappro	-4353
▁communes	-4354
▁gé	-4355
▁fron	-4356
▁Acc	-4357
▁serious	-4358
")	-4359
▁pen	-4360
▁original	-4361
Commun	-4362
▁biens	-4363
▁procéder	-4364
lected	-4365
▁advance	-4366
des	-4367
échange	-4368
sibles	-4369
wise	-4370
▁actual	-4371
▁financiers	-4372
estations	-4373
▁safe	-4374
▁draft	-4375
▁large	-4376
▁exportations	-4377
▁establishments	-4378
▁bénéficiaire	-4379
▁fruits	-4380
lectronic	-4381
▁enable	-4382
▁Y	-4383
▁appoint	-4384
elf	-4385
aries	-4386
▁matters	-4387
Texte	-4388
▁extra	-4389
37	-4390
activité	-4391
▁benefit	-4392
▁consultations	-4393
Text	-4394
acité	-4395
▁régimes	-4396
▁find	-4397
rant	-4398
istance	-4399
▁contingents	-4400
▁fronti	-4401
▁granting	-4402
▁PO	-4403
Aut	-4404
▁movement	-4405
CI	-4406
gular	-4407
▁fut	-4408
▁ouv	-4409
▁accepted	-4410
78	-4411
enir	-4412
▁making	-4413
▁budg	-4414
acte	-4415
older	-4416
▁fonds	-4417
▁12,	-4418
▁balance	-4419
rais	-4420
ulation	-4421
▁navire	-4422
▁vessel	-4423
▁correspondant	-4424
tices	-4425
▁invo	-4426
▁providing	-4427
▁ques	-4428
atch	-4429
▁puis	-4430
Agence	-4431
▁bureau	-4432
▁fishery	-4433
▁identification	-4434
▁groups	-4435
▁processed	-4436
▁majorité	-4437
▁poursu	-4438
▁categories	-4439
enregistrement	-4440
améli	-4441
▁travaux	-4442
▁efficace	-4443
▁bénéficier	-4444
insp	-4445
Uni	-4446
▁91/	-4447
▁bro	-4448
▁3)	-4449
▁det	-4450
▁propri	-4451
qués	-4452
▁2002,	-4453
▁générale	-4454
▁questions	-4455
▁inspections	-4456
acqu	-4457
▁rates	-4458
▁gaz	-4459
▁tenant	-4460
▁manufacturer	-4461
POR	-4462
▁discrim	-4463
▁faciliter	-4464
▁calend	-4465
▁représentants	-4466
▁state	-4467
▁considération	-4468
IDED	-4469
ordre	-4470
vi	-4471
énergie	-4472
rique	-4473
▁96/	-4474
▁posi	-4475
▁alimentaire	-4476
▁Ind	-4477
▁longer	-4478
standing	-4479
▁officielle	-4480
médi	-4481
▁MEMB	-4482
▁temporary	-4483
▁utilisation	-4484
▁similar	-4485
▁66	-4486
▁loss	-4487
▁70/15	-4488
▁accordée	-4489
▁%,	-4490
▁expir	-4491
▁percentage	-4492
/40	-4493
▁cho	-4494
ût	-4495
expiration	-4496
ouver	-4497
▁voie	-4498
▁répar	-4499
oph	-4500
irman	-4501
clusion	-4502
▁forthwith	-4503
▁2005,	-4504
▁restitutions	-4505
▁aérien	-4506
▁responsi	-4507
▁financières	-4508
▁acquis	-4509
▁informed	-4510
icro	-4511
▁latter	-4512
Community	-4513
▁eu	-4514
▁sanctions	-4515
rom	-4516
live	-4517
▁fixing	-4518
▁dimin	-4519
▁lays	-4520
▁placed	-4521
▁99	-4522
▁responsabilité	-4523
▁fil	-4524
▁titulaire	-4525
▁fisc	-4526
▁status	-4527
▁maladie	-4528
▁intérêts	-4529
▁opérateurs	-4530
▁electronic	-4531
▁representatives	-4532
▁2001,	-4533
5.	-4534
▁research	-4535
be	-4536
angement	-4537
▁rév	-4538
▁Fonds	-4539
▁agency	-4540
ards	-4541
▁ST	-4542
▁effectué	-4543
▁appliquer	-4544
▁margin	-4545
▁suivante	-4546
▁millions	-4547
asses	-4548
▁There	-4549
▁evaluation	-4550
▁SE	-4551
▁exprim	-4552
▁poss	-4553
▁10.	-4554
▁Sch	-4555
▁mises	-4556
▁maximales	-4557
▁lut	-4558
▁deemed	-4559
▁ving	-4560
AND	-4561
▁Bul	-4562
▁category	-4563
institution	-4564
identification	-4565
hous	-4566
rable	-4567
▁act	-4568
";	-4569
▁pris	-4570
▁mondi	-4571
AIR	-4572
elling	-4573
exception	-4574
▁76/	-4575
▁indiqué	-4576
accomp	-4577
▁fruit	-4578
▁tre	-4579
▁totale	-4580
▁propres	-4581
eaux	-4582
urred	-4583
ignes	-4584
▁CONS	-4585
▁chiff	-4586
▁receip	-4587
▁fabric	-4588
▁champ	-4589
▁reports	-4590
▁44	-4591
▁2004/	-4592
▁laiti	-4593
▁détermination	-4594
▁avoid	-4595
▁supervision	-4596
▁96	-4597
▁Tit	-4598
▁maximale	-4599
▁composition	-4600
▁QU	-4601
▁mer	-4602
▁abrog	-4603
▁eaux	-4604
▁notifications	-4605
▁raw	-4606
▁conj	-4607
▁prélè	-4608
POS	-4609
▁commission	-4610
▁réserv	-4611
▁FOLLOWS	-4612
SP	-4613
veur	-4614
heries	-4615
alimentation	-4616
dis	-4617
ild	-4618
▁77/	-4619
▁87	-4620
▁term	-4621
▁involved	-4622
▁susceptibles	-4623
▁financing	-4624
▁manner	-4625
▁examine	-4626
▁juridique	-4627
▁temporaire	-4628
▁rapprochement	-4629
▁Fund	-4630
tiles	-4631
▁scientifiques	-4632
▁maritime	-4633
▁held	-4634
59	-4635
29	-4636
obligation	-4637
▁return	-4638
▁besoins	-4639
▁géograph	-4640
▁pouvant	-4641
▁véhicule	-4642
CES	-4643
▁lot	-4644
élé	-4645
▁likely	-4646
onctions	-4647
▁function	-4648
▁70/156/	-4649
▁contingent	-4650
▁formal	-4651
Esp	-4652
judic	-4653
▁définition	-4654
▁forf	-4655
▁DIS	-4656
▁pig	-4657
tifiée	-4658
▁instrument	-4659
▁pestic	-4660
35	-4661
▁phr	-4662
▁(14)	-4663
▁soutien	-4664
▁notice	-4665
▁autorisés	-4666
▁International	-4667
40	-4668
▁quatre	-4669
agements	-4670
▁observations	-4671
▁alco	-4672
▁égard	-4673
▁cli	-4674
▁autorisation	-4675
▁remo	-4676
▁performance	-4677
▁quar	-4678
▁taxes	-4679
▁assets	-4680
▁maintain	-4681
▁contact	-4682
▁énumérés	-4683
▁paiements	-4684
uter	-4685
▁dés	-4686
▁pourcentage	-4687
▁Sur	-4688
urent	-4689
▁preced	-4690
▁Tar	-4691
ecu	-4692
aceu	-4693
▁publics	-4694
▁activité	-4695
▁definitive	-4696
▁équipements	-4697
dire	-4698
eter	-4699
▁various	-4700
▁employment	-4701
▁56	-4702
▁recommend	-4703
▁distin	-4704
intérieur	-4705
armaceu	-4706
▁consumer	-4707
▁facilitate	-4708
▁introduction	-4709
rès	-4710
▁encore	-4711
▁taxe	-4712
ERS	-4713
▁98/	-4714
▁via	-4715
▁interne	-4716
▁exemption	-4717
▁hereinafter	-4718
enz	-4719
▁Tra	-4720
▁land	-4721
▁dépôt	-4722
▁grounds	-4723
▁inserted	-4724
umn	-4725
▁98	-4726
mical	-4727
▁PROV	-4728
▁carrying	-4729
▁gouvernement	-4730
▁directeur	-4731
▁000	-4732
▁obtain	-4733
▁41	-4734
▁généra	-4735
▁38	-4736
▁2003.	-4737
▁rapports	-4738
▁pouvoirs	-4739
very	-4740
▁central	-4741
▁exercise	-4742
▁investis	-4743
oll	-4744
00000	-4745
▁marque	-4746
▁guidelines	-4747
▁completed	-4748
▁Code	-4749
af	-4750
bilities	-4751
32	-4752
▁fonctions	-4753
(5),	-4754
▁consolid	-4755
▁internationale	-4756
▁private	-4757
cher	-4758
lements	-4759
▁nouveau	-4760
▁olive	-4761
▁progrès	-4762
atifs	-4763
égard	-4764
▁porte	-4765
▁Sub	-4766
effici	-4767
aise	-4768
▁presented	-4769
▁changes	-4770
▁suspension	-4771
▁quel	-4772
import	-4773
▁radio	-4774
line	-4775
▁receipt	-4776
▁Act	-4777
▁94/	-4778
▁workers	-4779
▁projects	-4780
70	-4781
▁eggs	-4782
▁gas	-4783
ouverture	-4784
▁[2]	-4785
▁consommateurs	-4786
▁deb	-4787
▁otherwise	-4788
▁vérification	-4789
▁tâ	-4790
▁Russi	-4791
▁capacité	-4792
▁constitue	-4793
ateral	-4794
▁centre	-4795
▁autorisé	-4796
▁below	-4797
▁initial	-4798
▁fournisse	-4799
atique	-4800
67	-4801
espè	-4802
ordonn	-4803
▁adequ	-4804
▁bon	-4805
▁utilisé	-4806
ined	-4807
▁micro	-4808
▁faveur	-4809
omme	-4810
meat	-4811
▁usage	-4812
▁culture	-4813
eness	-4814
▁Res	-4815
▁exc	-4816
▁President	-4817
/1999,	-4818
▁context	-4819
25	-4820
tra	-4821
▁[4	-4822
▁sum	-4823
▁probl	-4824
▁ressor	-4825
▁feeding	-4826
mentioned	-4827
▁Aug	-4828
▁transfert	-4829
▁commerciales	-4830
▁Secret	-4831
▁operating	-4832
atif	-4833
▁energy	-4834
▁initiative	-4835
aged	-4836
introduction	-4837
▁2000,	-4838
▁statistique	-4839
▁EEC	-4840
▁Tur	-4841
▁delay	-4842
▁mettent	-4843
▁combinée	-4844
vest	-4845
▁groupes	-4846
▁fre	-4847
▁prime	-4848
▁whole	-4849
onie	-4850
ttes	-4851
nowled	-4852
time	-4853
▁améli	-4854
ipl	-4855
lim	-4856
▁civile	-4857
▁moteur	-4858
▁adaptation	-4859
rea	-4860
▁1989	-4861
▁circonstances	-4862
lands	-4863
▁approprié	-4864
▁General	-4865
ounting	-4866
▁lignes	-4867
▁contiennent	-4868
21	-4869
▁différentes	-4870
▁able	-4871
▁proof	-4872
agrément	-4873
▁délivré	-4874
▁confidential	-4875
▁Z	-4876
▁argu	-4877
▁haut	-4878
▁signed	-4879
▁outside	-4880
angere	-4881
▁transports	-4882
▁column	-4883
▁voy	-4884
▁sold	-4885
▁participants	-4886
▁14,	-4887
▁Health	-4888
▁introduced	-4889
ily	-4890
▁line	-4891
▁[2],	-4892
▁dangere	-4893
▁separate	-4894
▁powers	-4895
▁particulars	-4896
64	-4897
ATIONS	-4898
▁periods	-4899
ATE	-4900
▁51	-4901
ports	-4902
▁August	-4903
oût	-4904
▁indep	-4905
▁90/42	-4906
wan	-4907
▁méc	-4908
▁thereto	-4909
▁experience	-4910
▁professional	-4911
▁contractantes	-4912
térieures	-4913
▁expressed	-4914
lose	-4915
Europe	-4916
urgence	-4917
▁altern	-4918
▁approximation	-4919
▁liées	-4920
ueil	-4921
▁Out	-4922
▁détaill	-4923
▁securities	-4924
▁DECIDED	-4925
quac	-4926
▁rice	-4927
▁offic	-4928
ok	-4929
▁tri	-4930
▁stric	-4931
▁Director	-4932
▁improve	-4933
▁recognition	-4934
">	-4935
▁Q	-4936
▁(5),	-4937
▁intra	-4938
▁particularly	-4939
▁fixe	-4940
andid	-4941
▁liés	-4942
▁validité	-4943
▁cereals	-4944
rop	-4945
inspection	-4946
vins	-4947
▁Title	-4948
▁établissement	-4949
▁internationales	-4950
▁(15)	-4951
▁beca	-4952
rganisation	-4953
▁ON	-4954
▁decla	-4955
Unis	-4956
▁difficult	-4957
▁esp	-4958
rie	-4959
▁motor	-4960
▁practice	-4961
▁promotion	-4962
ME	-4963
▁deleted	-4964
▁orient	-4965
▁decided	-4966
érience	-4967
▁coût	-4968
▁colonne	-4969
ographical	-4970
▁association	-4971
▁EEE	-4972
▁dispose	-4973
abl	-4974
istence	-4975
hereinafter	-4976
▁soon	-4977
▁invitation	-4978
▁ing	-4979
oute	-4980
emball	-4981
▁weigh	-4982
▁relè	-4983
▁residue	-4984
▁VIII	-4985
▁objet	-4986
titude	-4987
▁confér	-4988
▁transitional	-4989
▁ear	-4990
bation	-4991
▁naturel	-4992
▁benefits	-4993
êtes	-4994
▁risks	-4995
eal	-4996
▁viv	-4997
▁unit	-4998
forcement	-4999
▁schemes	-5000
▁reten	-5001
izations	-5002
▁définis	-5003
▁AG	-5004
▁mobil	-5005
ifying	-5006
▁contributions	-5007
▁dipl	-5008
▁adéqu	-5009
▁définie	-5010
92	-5011
OD	-5012
rate	-5013
▁jug	-5014
opération	-5015
▁administration	-5016
▁piè	-5017
▁reconnaissance	-5018
▁requises	-5019
▁transmis	-5020
SC	-5021
▁marge	-5022
▁fourniture	-5023
▁consideration	-5024
▁admis	-5025
▁holder	-5026
▁laitiers	-5027
illeurs	-5028
▁network	-5029
▁entitled	-5030
▁fraî	-5031
▁vege	-5032
▁soumises	-5033
▁104	-5034
quaculture	-5035
34	-5036
▁absence	-5037
▁contamin	-5038
▁légumes	-5039
▁71	-5040
▁safegu	-5041
▁users	-5042
▁dûment	-5043
▁examen	-5044
▁residues	-5045
▁IM	-5046
▁Germany	-5047
▁11.	-5048
▁inférieur	-5049
otes	-5050
▁counter	-5051
▁butter	-5052
▁riz	-5053
▁practices	-5054
7.	-5055
lemagne	-5056
▁Inter	-5057
▁parten	-5058
▁85	-5059
hentic	-5060
▁extended	-5061
▁supplied	-5062
▁emball	-5063
rup	-5064
cy	-5065
▁2002.	-5066
▁regions	-5067
▁liquid	-5068
▁déterminée	-5069
▁sanitaires	-5070
▁fund	-5071
▁savoir	-5072
▁qualifi	-5073
▁occasion	-5074
▁Cer	-5075
▁divers	-5076
▁présenté	-5077
▁keep	-5078
▁prefer	-5079
6),	-5080
(2).	-5081
engen	-5082
▁août	-5083
uit	-5084
▁cong	-5085
ieux	-5086
▁importe	-5087
▁évaluation	-5088
▁sais	-5089
▁approuvé	-5090
▁combined	-5091
tième	-5092
▁2001.	-5093
▁geographical	-5094
▁médic	-5095
▁transmit	-5096
ommunications	-5097
▁autom	-5098
IB	-5099
arg	-5100
▁implemented	-5101
andis	-5102
▁good	-5103
▁rejet	-5104
astructure	-5105
▁identified	-5106
▁1999/	-5107
îne	-5108
▁déten	-5109
▁requires	-5110
▁determining	-5111
êter	-5112
▁dix	-5113
▁organisme	-5114
urre	-5115
▁obs	-5116
▁annexed	-5117
▁slaughter	-5118
▁led	-5119
▁units	-5120
▁moyenne	-5121
▁preceding	-5122
▁definition	-5123
OU	-5124
asi	-5125
▁SHALL	-5126
▁chacun	-5127
▁candid	-5128
aptation	-5129
▁phrase	-5130
▁Schengen	-5131
▁2005/	-5132
▁proble	-5133
▁coeffici	-5134
▁variétés	-5135
▁incomp	-5136
▁signature	-5137
▁demander	-5138
ane	-5139
imm	-5140
▁thus	-5141
▁lutte	-5142
▁restructuration	-5143
▁clos	-5144
▁12.	-5145
▁analy	-5146
▁91/493/	-5147
itary	-5148
▁1493	-5149
▁pertinentes	-5150
▁def	-5151
▁DÉCIDE	-5152
enant	-5153
.";	-5154
irement	-5155
▁beurre	-5156
▁vérifier	-5157
▁nécessité	-5158
▁sw	-5159
ata	-5160
▁cela	-5161
▁applies	-5162
51	-5163
▁végéta	-5164
▁certifi	-5165
▁sto	-5166
▁niveaux	-5167
▁étaient	-5168
.'	-5169
ieties	-5170
▁possibility	-5171
effect	-5172
69	-5173
▁audit	-5174
▁Bulgar	-5175
▁constaté	-5176
▁Trans	-5177
▁lodged	-5178
LES	-5179
ablement	-5180
va	-5181
▁depuis	-5182
▁remplacés	-5183
isations	-5184
▁ensuring	-5185
▁expiry	-5186
▁supérieure	-5187
▁figure	-5188
▁vie	-5189
▁stage	-5190
hér	-5191
▁devant	-5192
▁vaccination	-5193
era	-5194
issons	-5195
ene	-5196
ivers	-5197
igher	-5198
▁2200	-5199
▁sever	-5200
▁effectivement	-5201
▁Food	-5202
▁supérieur	-5203
▁budgétaire	-5204
UBL	-5205
▁har	-5206
itions	-5207
▁dates	-5208
exportateur	-5209
▁respectivement	-5210
▁adopté	-5211
ada	-5212
53	-5213
▁ill	-5214
effic	-5215
▁accession	-5216
▁prim	-5217
▁setting	-5218
▁deg	-5219
▁Chine	-5220
▁concentration	-5221
dessus	-5222
tac	-5223
▁79	-5224
rated	-5225
▁exclusive	-5226
▁engagements	-5227
qué	-5228
▁liaison	-5229
échantill	-5230
sif	-5231
▁board	-5232
8.	-5233
achat	-5234
▁Belg	-5235
▁overall	-5236
▁dernière	-5237
cting	-5238
▁civil	-5239
▁Accord	-5240
operation	-5241
▁Spain	-5242
rench	-5243
▁higher	-5244
▁future	-5245
▁propre	-5246
efficacité	-5247
▁matériels	-5248
▁essentielles	-5249
uts	-5250
▁sti	-5251
▁surf	-5252
▁égal	-5253
▁normale	-5254
▁labelling	-5255
▁her	-5256
▁(16)	-5257
ITH	-5258
▁tonne	-5259
ritten	-5260
▁famil	-5261
▁décrit	-5262
▁statistics	-5263
▁fore	-5264
aï	-5265
▁Dis	-5266
▁grand	-5267
▁siège	-5268
▁sauve	-5269
▁because	-5270
▁centres	-5271
▁custom	-5272
▁susceptible	-5273
6.	-5274
tar	-5275
agent	-5276
▁infring	-5277
▁tarifaire	-5278
IQUE	-5279
érique	-5280
OG	-5281
outh	-5282
aître	-5283
objec	-5284
▁personal	-5285
▁exten	-5286
▁French	-5287
mark	-5288
▁préfér	-5289
riculture	-5290
***	-5291
▁capr	-5292
▁1260	-5293
▁forfait	-5294
▁identifi	-5295
▁enqu	-5296
▁pièces	-5297
PR	-5298
▁judici	-5299
▁carb	-5300
aît	-5301
ibres	-5302
▁minimal	-5303
▁puissent	-5304
▁varieties	-5305
▁kept	-5306
ecutive	-5307
▁domaines	-5308
étiquetage	-5309
▁compatible	-5310
érie	-5311
▁franç	-5312
▁agreed	-5313
▁complémentaires	-5314
ache	-5315
atég	-5316
▁registre	-5317
▁restructuring	-5318
mentaires	-5319
▁rembour	-5320
▁capacités	-5321
9.	-5322
66/	-5323
adjudication	-5324
▁15,	-5325
▁complete	-5326
inst	-5327
▁capit	-5328
▁chim	-5329
▁fraîches	-5330
▁exploitation	-5331
aj	-5332
▁recover	-5333
▁sociale	-5334
cr	-5335
▁porter	-5336
▁statuant	-5337
hol	-5338
raison	-5339
73	-5340
▁réduire	-5341
▁constitute	-5342
▁nor	-5343
AY	-5344
▁interested	-5345
▁independent	-5346
▁head	-5347
▁titres	-5348
▁verification	-5349
▁ple	-5350
▁arising	-5351
▁centrale	-5352
ITE	-5353
▁Accession	-5354
▁Is	-5355
▁SA	-5356
▁1782	-5357
▁responsibility	-5358
FOR	-5359
lav	-5360
▁vend	-5361
▁seu	-5362
▁ache	-5363
▁fournit	-5364
▁respectively	-5365
érations	-5366
▁operator	-5367
▁énoncées	-5368
▁qualified	-5369
ologiques	-5370
▁influ	-5371
▁comporte	-5372
▁proposals	-5373
▁check	-5374
▁donner	-5375
▁confirmed	-5376
kra	-5377
èrent	-5378
▁road	-5379
▁fournies	-5380
▁dim	-5381
▁renfor	-5382
▁appropriée	-5383
▁présence	-5384
▁processus	-5385
AD	-5386
▁Im	-5387
▁physiques	-5388
▁réseaux	-5389
▁submission	-5390
▁utilisateurs	-5391
▁POUR	-5392
▁rappor	-5393
▁US	-5394
▁packaging	-5395
comp	-5396
91	-5397
▁deriv	-5398
asing	-5399
▁avait	-5400
▁juris	-5401
▁retrait	-5402
▁pror	-5403
▁70/	-5404
▁rapid	-5405
▁tâches	-5406
▁variety	-5407
▁communiquées	-5408
▁New	-5409
▁prep	-5410
ecting	-5411
▁words	-5412
▁considers	-5413
▁hereto	-5414
▁publiques	-5415
▁did	-5416
▁forms	-5417
▁label	-5418
ough	-5419
▁bénéfice	-5420
▁délivrés	-5421
»,	-5422
▁lower	-5423
▁classement	-5424
▁petit	-5425
▁réf	-5426
IP	-5427
▁every	-5428
▁acceptance	-5429
ducation	-5430
ommunaut	-5431
▁entités	-5432
▁émissions	-5433
▁AUT	-5434
▁tasks	-5435
▁subordonn	-5436
lée	-5437
ène	-5438
▁94	-5439
▁2658/	-5440
▁oeufs	-5441
ERE	-5442
turn	-5443
▁adress	-5444
▁périodes	-5445
(7	-5446
▁("	-5447
ends	-5448
quie	-5449
▁consent	-5450
▁among	-5451
OC	-5452
▁agencies	-5453
▁TITRE	-5454
ommes	-5455
uding	-5456
▁live	-5457
▁autorité	-5458
END	-5459
occ	-5460
▁pat	-5461
▁source	-5462
▁propositions	-5463
47	-5464
▁depos	-5465
▁incorporated	-5466
oi	-5467
▁**	-5468
▁Swed	-5469
▁raisonn	-5470
▁découl	-5471
▁efforts	-5472
▁findings	-5473
rables	-5474
▁matériel	-5475
▁prêt	-5476
▁confer	-5477
▁offres	-5478
▁permis	-5479
▁prestations	-5480
▁while	-5481
▁satisfy	-5482
▁accounting	-5483
hold	-5484
▁All	-5485
▁upd	-5486
admission	-5487
▁consulta	-5488
onom	-5489
nowledge	-5490
▁porcine	-5491
▁teneurs	-5492
▁written	-5493
▁collection	-5494
▁passeng	-5495
aison	-5496
▁several	-5497
▁declared	-5498
ness	-5499
▁mech	-5500
▁réexamen	-5501
▁300	-5502
▁besoin	-5503
▁correc	-5504
expérience	-5505
▁protected	-5506
▁politiques	-5507
▁professionnelle	-5508
associ	-5509
▁physique	-5510
▁Exécution	-5511
orks	-5512
wards	-5513
▁2377	-5514
▁déterminé	-5515
racommunaut	-5516
▁mécanis	-5517
▁DISPOS	-5518
objectif	-5519
▁classified	-5520
▁guarantees	-5521
PORT	-5522
▁needs	-5523
▁maximal	-5524
.`	-5525
▁duquel	-5526
▁SECTION	-5527
▁electric	-5528
ls	-5529
nown	-5530
▁associations	-5531
62	-5532
▁hors	-5533
▁Toute	-5534
▁phys	-5535
▁Tariff	-5536
CN	-5537
▁Rem	-5538
▁officials	-5539
▁HA	-5540
antage	-5541
▁lettre	-5542
▁Pr	-5543
uile	-5544
▁Dan	-5545
▁dri	-5546
ètres	-5547
▁recip	-5548
▁attached	-5549
▁copie	-5550
▁intracommunaut	-5551
équip	-5552
▁Group	-5553
▁release	-5554
existence	-5555
▁élig	-5556
▁régissant	-5557
▁model	-5558
65	-5559
ek	-5560
▁administr	-5561
▁problèmes	-5562
▁dénomination	-5563
▁douanière	-5564
▁considérés	-5565
arb	-5566
▁fabri	-5567
ITLE	-5568
édition	-5569
▁*****	-5570
▁aient	-5571
▁incurred	-5572
▁uniquement	-5573
▁lists	-5574
33	-5575
▁Hong	-5576
▁Products	-5577
▁entities	-5578
▁Lt	-5579
▁indépend	-5580
▁suivi	-5581
▁del	-5582
▁1987	-5583
▁grow	-5584
▁holdings	-5585
▁inférieure	-5586
▁2454	-5587
▁gener	-5588
▁adequate	-5589
▁dérogations	-5590
▁2913	-5591
▁compétences	-5592
amp	-5593
ured	-5594
▁Ltd	-5595
▁(17)	-5596
▁cross	-5597
▁course	-5598
▁industrial	-5599
exportateurs	-5600
▁quantitative	-5601
▁funds	-5602
▁essais	-5603
charge	-5604
imination	-5605
ITS	-5606
▁size	-5607
iterran	-5608
▁justice	-5609
▁kg	-5610
▁propag	-5611
aces	-5612
▁20,	-5613
assistance	-5614
more	-5615
▁sor	-5616
▁Author	-5617
▁langues	-5618
espèce	-5619
▁appel	-5620
▁commerciale	-5621
▁crim	-5622
▁decre	-5623
omb	-5624
▁54	-5625
▁préalable	-5626
▁Area	-5627
▁échantill	-5628
▁Government	-5629
érée	-5630
▁émis	-5631
/2001,	-5632
▁favour	-5633
▁shares	-5634
▁population	-5635
▁feedingstuffs	-5636
IA	-5637
lin	-5638
ired	-5639
▁pension	-5640
▁importés	-5641
▁utiliser	-5642
▁prélèvement	-5643
mê	-5644
itée	-5645
▁WITH	-5646
▁serait	-5647
▁validity	-5648
▁rail	-5649
dro	-5650
▁zo	-5651
▁lettres	-5652
▁fibres	-5653
▁requirement	-5654
clear	-5655
▁calendar	-5656
▁expenses	-5657
▁livraison	-5658
clé	-5659
▁great	-5660
ESC	-5661
ners	-5662
▁création	-5663
▁delivery	-5664
▁amendment	-5665
▁stipul	-5666
▁Outturn	-5667
▁mentions	-5668
ICH	-5669
▁annuel	-5670
▁difficul	-5671
▁coordin	-5672
▁4)	-5673
▁nr	-5674
agit	-5675
▁reco	-5676
tiveness	-5677
▁allowed	-5678
▁recognised	-5679
tos	-5680
▁020	-5681
ternal	-5682
▁about	-5683
sequently	-5684
▁16,	-5685
reland	-5686
27	-5687
EU	-5688
▁55	-5689
▁IS	-5690
▁(10	-5691
▁world	-5692
▁établir	-5693
tés	-5694
▁nationals	-5695
onst	-5696
sociation	-5697
▁motifs	-5698
▁premières	-5699
▁importateurs	-5700
▁alia	-5701
▁neg	-5702
▁faite	-5703
▁progres	-5704
▁utilisée	-5705
▁88	-5706
eterinary	-5707
▁rede	-5708
▁faites	-5709
▁disposal	-5710
▁mach	-5711
▁mutual	-5712
▁maintenance	-5713
▁pond	-5714
arks	-5715
▁marqu	-5716
▁short	-5717
▁considérées	-5718
▁–	-5719
▁court	-5720
▁indicate	-5721
▁become	-5722
▁residence	-5723
▁0,—	-5724
duction	-5725
▁consignment	-5726
▁participant	-5727
▁accompagnées	-5728
▁penal	-5729
approvision	-5730
▁specifications	-5731
▁Under	-5732
▁PRODUC	-5733
▁bénéficiaires	-5734
ople	-5735
▁names	-5736
ae	-5737
éléc	-5738
▁importer	-5739
▁maintenir	-5740
▁ECB	-5741
▁wat	-5742
▁lead	-5743
▁known	-5744
▁actually	-5745
▁associated	-5746
▁Cooperation	-5747
mon	-5748
▁Rec	-5749
▁Ireland	-5750
/19	-5751
▁voyage	-5752
ton	-5753
▁soumet	-5754
▁appliquées	-5755
▁supplémentaire	-5756
uvoir	-5757
▁DANS	-5758
▁sentence	-5759
lex	-5760
▁sole	-5761
▁problems	-5762
▁strength	-5763
▁autorisée	-5764
▁lum	-5765
oe	-5766
▁chairman	-5767
▁importers	-5768
04	-5769
▁départ	-5770
ourg	-5771
▁BCE	-5772
▁Ent	-5773
▁Bank	-5774
▁fisheries	-5775
bord	-5776
▁unies	-5777
▁statement	-5778
▁communique	-5779
ystem	-5780
riting	-5781
▁Austri	-5782
▁achieve	-5783
▁irre	-5784
acquis	-5785
▁indirect	-5786
▁minimales	-5787
ugos	-5788
idents	-5789
éviter	-5790
tiqu	-5791
aling	-5792
▁Indi	-5793
effet	-5794
▁rent	-5795
amment	-5796
▁Compte	-5797
agers	-5798
/2003,	-5799
▁desqu	-5800
▁presentation	-5801
▁cul	-5802
works	-5803
▁2658/87	-5804
▁distrib	-5805
médiaire	-5806
élev	-5807
▁importance	-5808
▁fonctionnaires	-5809
▁Jus	-5810
▁ait	-5811
▁décider	-5812
▁préciser	-5813
▁Gr	-5814
ator	-5815
▁China	-5816
▁début	-5817
ICATION	-5818
▁(11	-5819
▁agréés	-5820
▁communicated	-5821
iii	-5822
▁even	-5823
▁état	-5824
▁promote	-5825
▁adjustment	-5826
▁facilities	-5827
63	-5828
▁77	-5829
▁Cor	-5830
▁hal	-5831
dients	-5832
▁ECU	-5833
▁bank	-5834
(6),	-5835
▁exceeding	-5836
exemp	-5837
▁comments	-5838
▁investissements	-5839
gard	-5840
TH	-5841
▁récol	-5842
▁specify	-5843
offre	-5844
▁dest	-5845
▁chemical	-5846
▁operational	-5847
▁QUE	-5848
ostat	-5849
▁DISPOSITIONS	-5850
▁requis	-5851
▁ID	-5852
tité	-5853
▁recorded	-5854
61	-5855
▁douze	-5856
▁alcohol	-5857
▁difference	-5858
▁répon	-5859
▁tenders	-5860
▁budgetary	-5861
▁Min	-5862
▁TITLE	-5863
▁interven	-5864
▁authentic	-5865
mun	-5866
▁obstac	-5867
▁contenu	-5868
▁définir	-5869
▁inscrit	-5870
adaptation	-5871
▁différence	-5872
art	-5873
▁82	-5874
▁habit	-5875
▁exporter	-5876
bilisation	-5877
▁1999,	-5878
▁distor	-5879
amélioration	-5880
CF	-5881
▁stratég	-5882
AU	-5883
toph	-5884
Allemagne	-5885
):	-5886
▁57	-5887
ycle	-5888
▁1980	-5889
▁rendu	-5890
umul	-5891
tifying	-5892
▁effectuer	-5893
▁Dé	-5894
▁texts	-5895
▁situated	-5896
▁remboursement	-5897
▁FIN	-5898
▁fully	-5899
▁enquête	-5900
▁majeure	-5901
▁mutandis	-5902
▁ressortiss	-5903
▁determination	-5904
ènes	-5905
▁prob	-5906
▁reserv	-5907
notified	-5908
▁sauvegard	-5909
emballage	-5910
▁publiée	-5911
▁constitution	-5912
▁(18)	-5913
▁knowledge	-5914
▁navig	-5915
▁mutatis	-5916
▁réglementations	-5917
▁tes	-5918
▁auxquelles	-5919
▁abovementioned	-5920
onia	-5921
house	-5922
▁très	-5923
▁writing	-5924
▁certified	-5925
▁fabricant	-5926
withstanding	-5927
▁Veterinary	-5928
cessions	-5929
▁collecte	-5930
ick	-5931
▁secteurs	-5932
▁contribute	-5933
oo	-5934
èque	-5935
▁intention	-5936
▁connection	-5937
▁register	-5938
▁completion	-5939
▁installation	-5940
▁languages	-5941
▁constituent	-5942
▁présentée	-5943
tosan	-5944
▁poly	-5945
▁route	-5946
olive	-5947
rlande	-5948
▁bonne	-5949
▁figurent	-5950
outi	-5951
ening	-5952
/2000,	-5953
▁Further	-5954
▁pesticides	-5955
▁consommateur	-5956
ma	-5957
▁vin	-5958
▁waters	-5959
▁demandé	-5960
▁enquêtes	-5961
employ	-5962
▁organizations	-5963
▁pén	-5964
▁arri	-5965
▁quant	-5966
▁plantes	-5967
▁rapporteur	-5968
Is	-5969
▁18,	-5970
▁occup	-5971
▁permet	-5972
▁désigné	-5973
▁publish	-5974
▁RES	-5975
▁2000.	-5976
▁renew	-5977
▁phytoph	-5978
▁promouvoir	-5979
▁déclarations	-5980
▁qualifications	-5981
▁prec	-5982
▁uses	-5983
▁allocation	-5984
"),	-5985
▁Ob	-5986
▁factors	-5987
▁soumise	-5988
per	-5989
▁existe	-5990
ically	-5991
▁safeguard	-5992
▁dispositifs	-5993
▁phytopharmaceu	-5994
▁iii	-5995
▁prolong	-5996
association	-5997
▁provisoires	-5998
▁participating	-5999
▁XX	-6000
▁redev	-6001
▁situations	-6002
▁ressortissants	-6003
▁actes	-6004
▁nuclé	-6005
▁needed	-6006
▁additives	-6007
▁compétent	-6008
▁86/	-6009
▁dam	-6010
reshold	-6011
atiques	-6012
▁Therefore	-6013
▁claims	-6014
▁procédé	-6015
',	-6016
▁multil	-6017
▁subsid	-6018
▁details	-6019
notifiée	-6020
▁possibilités	-6021
/92,	-6022
▁copies	-6023
▁clearly	-6024
▁controls	-6025
▁je	-6026
▁fam	-6027
▁compétence	-6028
uxemb	-6029
▁respecter	-6030
▁obtenus	-6031
▁throughout	-6032
fric	-6033
▁assign	-6034
▁meetings	-6035
EG	-6036
cune	-6037
▁itself	-6038
▁puisse	-6039
▁ajoutée	-6040
▁direction	-6041
mé	-6042
▁pure	-6043
11	-6044
▁allocated	-6045
▁developments	-6046
▁environnement	-6047
▁Jap	-6048
▁Ver	-6049
▁virus	-6050
▁dess	-6051
▁autorisations	-6052
cé	-6053
▁tox	-6054
▁Anim	-6055
▁motiv	-6056
▁arrête	-6057
▁property	-6058
▁According	-6059
▁beneficiary	-6060
67/	-6061
ave	-6062
▁comparable	-6063
term	-6064
▁coopéré	-6065
issance	-6066
▁requests	-6067
▁consumers	-6068
▁concessions	-6069
▁documentation	-6070
▁complè	-6071
pot	-6072
raft	-6073
▁présentées	-6074
▁preparation	-6075
round	-6076
tient	-6077
▁beef	-6078
▁Prog	-6079
▁issuing	-6080
▁Me	-6081
▁external	-6082
▁pourrait	-6083
▁reli	-6084
▁négociations	-6085
raction	-6086
06	-6087
▁74	-6088
▁renou	-6089
▁contribuer	-6090
▁buil	-6091
▁agréé	-6092
▁exploitations	-6093
io	-6094
▁téléc	-6095
echnical	-6096
▁surface	-6097
▁regulation	-6098
tifie	-6099
▁phytosan	-6100
ticip	-6101
▁indiquées	-6102
▁threshold	-6103
▁reasonable	-6104
▁répartition	-6105
ANCE	-6106
▁17,	-6107
▁Conf	-6108
▁lots	-6109
▁note	-6110
▁2913/92	-6111
▁jurisdiction	-6112
▁Action	-6113
▁volailles	-6114
▁actuellement	-6115
▁presence	-6116
▁écus	-6117
▁BY	-6118
▁résolution	-6119
▁SO	-6120
▁crédits	-6121
▁juridiction	-6122
mo	-6123
▁lif	-6124
ramme	-6125
▁PROVISION	-6126
taire	-6127
▁potenti	-6128
▁internationaux	-6129
FF	-6130
▁entraî	-6131
▁MAR	-6132
▁bar	-6133
▁listes	-6134
kraine	-6135
▁64/43	-6136
▁élevé	-6137
ference	-6138
▁treated	-6139
▁volumes	-6140
▁contracting	-6141
19	-6142
▁Not	-6143
huile	-6144
▁affér	-6145
▁exclusivement	-6146
voir	-6147
▁grap	-6148
▁procède	-6149
cientific	-6150
▁continuer	-6151
.1.	-6152
▁65	-6153
tures	-6154
▁compta	-6155
▁mechanis	-6156
▁pap	-6157
aides	-6158
tered	-6159
▁récip	-6160
ocation	-6161
▁achieved	-6162
▁connaissance	-6163
▁inséré	-6164
▁acquise	-6165
▁records	-6166
▁uniforme	-6167
indication	-6168
▁demonst	-6169
▁reduce	-6170
▁valoir	-6171
onnage	-6172
▁agent	-6173
accueil	-6174
▁principal	-6175
▁adm	-6176
tection	-6177
▁indique	-6178
▁modified	-6179
▁couverts	-6180
▁prohibit	-6181
▁Est	-6182
ienne	-6183
▁once	-6184
▁loi	-6185
▁adver	-6186
▁testing	-6187
▁purchase	-6188
rét	-6189
utri	-6190
▁facul	-6191
▁généraux	-6192
▁harm	-6193
▁élab	-6194
EX	-6195
▁Supp	-6196
▁Suède	-6197
▁république	-6198
▁Scientific	-6199
den	-6200
▁Cro	-6201
atric	-6202
▁swine	-6203
▁maladies	-6204
▁directrices	-6205
▁duly	-6206
▁global	-6207
▁indiqués	-6208
▁éventuellement	-6209
▁1992,	-6210
▁remplies	-6211
▁régulière	-6212
▁(19)	-6213
▁sk	-6214
▁sensi	-6215
▁ships	-6216
▁vivants	-6217
▁sampling	-6218
▁regulatory	-6219
.,	-6220
kes	-6221
udi	-6222
imb	-6223
ôts	-6224
▁Sweden	-6225
▁affected	-6226
▁fail	-6227
▁version	-6228
geant	-6229
▁actives	-6230
(2)(	-6231
▁arti	-6232
▁dead	-6233
Espagne	-6234
EUR	-6235
uls	-6236
▁1988	-6237
▁items	-6238
▁spécifications	-6239
▁exéc	-6240
▁language	-6241
▁released	-6242
▁1493/1999	-6243
▁subvention	-6244
▁reproduction	-6245
▁FA	-6246
▁vins	-6247
ipp	-6248
ÉR	-6249
▁GR	-6250
abat	-6251
▁REC	-6252
msel	-6253
MENTS	-6254
▁Gree	-6255
accept	-6256
▁ledit	-6257
mselves	-6258
▁bovins	-6259
▁périod	-6260
▁taxation	-6261
▁themselves	-6262
▁95/	-6263
▁3200	-6264
élevage	-6265
▁Austria	-6266
gen	-6267
▁Be	-6268
▁sépar	-6269
▁(2005/	-6270
▁clients	-6271
isory	-6272
▁1998,	-6273
▁seule	-6274
ality	-6275
rétariat	-6276
▁duration	-6277
▁examined	-6278
▁IX	-6279
▁végétaux	-6280
▁SP	-6281
enza	-6282
▁pav	-6283
cteurs	-6284
▁host	-6285
install	-6286
▁atteint	-6287
▁consistent	-6288
▁ultérieure	-6289
▁physical	-6290
▁modifiées	-6291
▁component	-6292
sequ	-6293
▁consultatif	-6294
riche	-6295
urity	-6296
encont	-6297
▁énumérées	-6298
▁bran	-6299
Euratom	-6300
▁adjudic	-6301
▁prohibited	-6302
▁levy	-6303
▁disclos	-6304
▁auxquels	-6305
▁similaires	-6306
▁functioning	-6307
ôle	-6308
▁power	-6309
▁belong	-6310
uxembourg	-6311
chel	-6312
exig	-6313
").	-6314
illon	-6315
▁viol	-6316
terior	-6317
▁mondial	-6318
▁calculation	-6319
▁électronique	-6320
▁That	-6321
▁breed	-6322
08	-6323
▁evalu	-6324
▁governed	-6325
▁autoriser	-6326
TAL	-6327
▁flag	-6328
48	-6329
oes	-6330
▁call	-6331
▁2377/90	-6332
▁dépasse	-6333
▁harvest	-6334
▁dossiers	-6335
▁appointed	-6336
▁Pe	-6337
▁him	-6338
▁log	-6339
ators	-6340
▁steps	-6341
▁location	-6342
ably	-6343
aisse	-6344
▁émet	-6345
▁signé	-6346
▁withdrawal	-6347
▁monn	-6348
▁plein	-6349
▁durant	-6350
harmon	-6351
▁stade	-6352
▁awarded	-6353
»:	-6354
▁Cz	-6355
▁exceptional	-6356
▁ligne	-6357
▁81	-6358
▁transaction	-6359
▁negotiations	-6360
▁letter	-6361
▁pavillon	-6362
▁mentionnées	-6363
▁Hung	-6364
▁2454/93	-6365
▁reprodu	-6366
▁satisfais	-6367
▁transporteur	-6368
▁97	-6369
hait	-6370
▁potential	-6371
▁qualifiée	-6372
▁satisfaire	-6373
▁Information	-6374
▁Commentaires	-6375
signe	-6376
▁chacune	-6377
▁components	-6378
▁PRES	-6379
▁télé	-6380
07	-6381
09	-6382
▁gene	-6383
▁rati	-6384
▁ports	-6385
▁souhait	-6386
ential	-6387
URES	-6388
▁Med	-6389
▁ép	-6390
▁foot	-6391
celand	-6392
▁persp	-6393
▁Den	-6394
▁séj	-6395
isent	-6396
▁cess	-6397
▁close	-6398
▁Remarks	-6399
▁découlant	-6400
▁discrimination	-6401
▁limitée	-6402
▁répondre	-6403
div	-6404
▁Czech	-6405
emark	-6406
▁mode	-6407
▁emerg	-6408
▁exces	-6409
▁égale	-6410
▁marquage	-6411
ollus	-6412
▁employe	-6413
rid	-6414
▁Pay	-6415
▁Luxembourg	-6416
▁Association	-6417
EL	-6418
▁impli	-6419
▁consequ	-6420
▁Canada	-6421
▁recettes	-6422
▁définitif	-6423
▁justified	-6424
ror	-6425
este	-6426
▁XII	-6427
▁tch	-6428
acceptation	-6429
▁Après	-6430
▁accordées	-6431
élaboration	-6432
▁existantes	-6433
▁flu	-6434
ering	-6435
▁noted	-6436
▁interp	-6437
attribution	-6438
▁appropriés	-6439
EF	-6440
▁mollus	-6441
▁portée	-6442
▁prévention	-6443
99/	-6444
eed	-6445
ditions	-6446
ón	-6447
▁49	-6448
ains	-6449
▁1255	-6450
▁still	-6451
▁poursuiv	-6452
▁difficultés	-6453
▁abs	-6454
▁income	-6455
▁éligibles	-6456
CED	-6457
rage	-6458
▁(6),	-6459
▁emissions	-6460
▁Iceland	-6461
▁fulfilled	-6462
▁questionnaire	-6463
bo	-6464
uy	-6465
▁accès	-6466
▁strateg	-6467
▁prévoient	-6468
▁1996,	-6469
vements	-6470
PC	-6471
lant	-6472
érés	-6473
▁prosp	-6474
lications	-6475
▁After	-6476
rel	-6477
vant	-6478
▁syn	-6479
▁appropriation	-6480
▁refuse	-6481
ignement	-6482
24	-6483
exc	-6484
mped	-6485
▁compla	-6486
▁incompati	-6487
▁territories	-6488
PUBL	-6489
▁engag	-6490
IX	-6491
▁Energy	-6492
▁langue	-6493
▁repris	-6494
eci	-6495
ribun	-6496
▁reçu	-6497
▁elements	-6498
▁dangereuses	-6499
lectricité	-6500
▁indiquant	-6501
▁série	-6502
▁démont	-6503
itu	-6504
▁AUX	-6505
agnos	-6506
▁protect	-6507
▁networks	-6508
▁préparation	-6509
▁destinataire	-6510
ATT	-6511
▁receive	-6512
▁géographique	-6513
28	-6514
Am	-6515
ocra	-6516
ési	-6517
▁COMP	-6518
guay	-6519
arily	-6520
▁étro	-6521
avance	-6522
ruguay	-6523
▁attribu	-6524
usse	-6525
(7)	-6526
itées	-6527
▁reste	-6528
▁sujet	-6529
▁marketed	-6530
▁policies	-6531
▁brut	-6532
▁encourage	-6533
▁fit	-6534
▁1995,	-6535
▁habil	-6536
▁Finland	-6537
▁transformés	-6538
hors	-6539
▁Mad	-6540
▁depart	-6541
approbation	-6542
▁48	-6543
▁1993,	-6544
▁Finlande	-6545
▁better	-6546
▁préparations	-6547
▁(12	-6548
▁Trade	-6549
▁ovine	-6550
exclusion	-6551
▁officiellement	-6552
(8	-6553
ché	-6554
▁Mon	-6555
▁vingt	-6556
▁2200/96	-6557
▁[3]	-6558
augment	-6559
▁recovery	-6560
▁regarded	-6561
oxy	-6562
▁tchèque	-6563
▁bul	-6564
▁dangerous	-6565
▁limitation	-6566
▁subventions	-6567
58	-6568
▁trafic	-6569
▁conclus	-6570
▁univers	-6571
CL	-6572
▁double	-6573
▁difficulties	-6574
ov	-6575
▁103	-6576
orient	-6577
▁monna	-6578
▁rural	-6579
▁spir	-6580
▁nutri	-6581
▁salari	-6582
▁recommandation	-6583
▁hor	-6584
▁(20)	-6585
▁Croati	-6586
icial	-6587
▁assisted	-6588
reedom	-6589
▁recon	-6590
ortateur	-6591
▁directe	-6592
▁Amer	-6593
▁comprise	-6594
▁greater	-6595
▁92/4	-6596
▁Spec	-6597
▁clin	-6598
▁send	-6599
ologne	-6600
▁target	-6601
▁unités	-6602
çant	-6603
▁debt	-6604
▁CONSID	-6605
inations	-6606
▁limiter	-6607
▁criminal	-6608
▁1(	-6609
▁portent	-6610
▁PROVISIONS	-6611
▁judiciaire	-6612
ISE	-6613
▁blan	-6614
General	-6615
▁covering	-6616
▁remplacement	-6617
itres	-6618
ology	-6619
▁vegetables	-6620
oto	-6621
▁authorise	-6622
▁superfici	-6623
▁clairement	-6624
▁équivalentes	-6625
▁SONT	-6626
▁plaf	-6627
▁76/76	-6628
PESC	-6629
ibilité	-6630
▁combus	-6631
▁existence	-6632
▁grande	-6633
▁Denmark	-6634
rin	-6635
▁79/	-6636
▁acces	-6637
▁prévoy	-6638
▁lumière	-6639
▁laboratoire	-6640
▁[5	-6641
▁bor	-6642
▁urg	-6643
ficie	-6644
▁takes	-6645
▁Elles	-6646
▁définitive	-6647
▁désignation	-6648
▁76	-6649
▁diss	-6650
▁called	-6651
▁nuclear	-6652
UM	-6653
».	-6654
▁gre	-6655
▁APPL	-6656
▁structures	-6657
▁emballages	-6658
▁tou	-6659
▁manif	-6660
▁diseases	-6661
▁Net	-6662
▁tom	-6663
cadre	-6664
CFSP	-6665
▁hel	-6666
enne	-6667
▁dehors	-6668
▁locaux	-6669
▁minimale	-6670
▁atteindre	-6671
▁bate	-6672
▁éviter	-6673
▁designed	-6674
▁Decisions	-6675
▁permitted	-6676
inscription	-6677
▁sauvegarde	-6678
▁Slovak	-6679
ficit	-6680
▁carrier	-6681
▁Danemark	-6682
▁former	-6683
▁sélection	-6684
▁ec	-6685
▁exer	-6686
▁aurait	-6687
▁correct	-6688
▁élément	-6689
Organisation	-6690
▁adaptations	-6691
usage	-6692
▁read	-6693
▁conduct	-6694
▁weighted	-6695
▁populaire	-6696
▁superficie	-6697
▁46	-6698
▁cultiv	-6699
▁décide	-6700
com	-6701
cteur	-6702
▁caused	-6703
▁2081	-6704
▁appare	-6705
▁auquel	-6706
▁format	-6707
="	-6708
orti	-6709
▁14.	-6710
▁[1]	-6711
▁indemn	-6712
▁coefficient	-6713
▁sû	-6714
▁mig	-6715
▁enterpr	-6716
▁additifs	-6717
NEX	-6718
prét	-6719
▁précise	-6720
▁liable	-6721
▁rendre	-6722
▁caprine	-6723
▁offered	-6724
▁undertaken	-6725
▁Ro	-6726
nées	-6727
▁Authority	-6728
▁extension	-6729
▁(*	-6730
tées	-6731
▁utile	-6732
▁heures	-6733
▁revenue	-6734
zer	-6735
▁rémun	-6736
▁works	-6737
▁Norway	-6738
▁verify	-6739
gra	-6740
▁13.	-6741
▁19,	-6742
▁very	-6743
▁recour	-6744
▁ailleurs	-6745
▁collected	-6746
IER	-6747
▁subi	-6748
nés	-6749
▁renforcer	-6750
▁officially	-6751
▁ACC	-6752
lying	-6753
▁ajus	-6754
▁sectors	-6755
▁inclusion	-6756
▁electricity	-6757
Re	-6758
▁eux	-6759
▁évalu	-6760
▁differences	-6761
▁AL	-6762
ever	-6763
▁Nom	-6764
intéress	-6765
▁1782/2003	-6766
▁1766	-6767
▁real	-6768
▁ware	-6769
arrêter	-6770
▁claimed	-6771
vers	-6772
▁file	-6773
▁1997,	-6774
▁notes	-6775
▁phase	-6776
▁FROM	-6777
▁répondent	-6778
▁Dispositions	-6779
▁66/40	-6780
▁prorog	-6781
▁withdrawn	-6782
vège	-6783
arian	-6784
économ	-6785
▁tient	-6786
▁Poland	-6787
▁envisaged	-6788
emblée	-6789
▁diagnos	-6790
▁Italy	-6791
▁meille	-6792
▁secret	-6793
▁présentent	-6794
etary	-6795
iennent	-6796
▁réaliser	-6797
expédition	-6798
▁2006.	-6799
accompl	-6800
▁premises	-6801
▁comportant	-6802
▁références	-6803
▁kilogrammes	-6804
▁technologies	-6805
▁authorisations	-6806
▁78/	-6807
itable	-6808
▁begin	-6809
▁complé	-6810
▁réunions	-6811
▁laboratory	-6812
VA	-6813
▁69	-6814
▁attest	-6815
uels	-6816
▁mél	-6817
▁Cons	-6818
▁Pologne	-6819
▁definitions	-6820
▁[3],	-6821
▁transmet	-6822
▁chin	-6823
▁come	-6824
engagement	-6825
▁COMMUNITY	-6826
uc	-6827
▁recital	-6828
▁samples	-6829
▁analyses	-6830
▁derogations	-6831
INT	-6832
▁47	-6833
▁adjusted	-6834
▁maintien	-6835
obil	-6836
▁extend	-6837
APH	-6838
▁NOT	-6839
▁Norvège	-6840
▁competi	-6841
▁designate	-6842
▁Furthermore	-6843
55	-6844
étaires	-6845
▁infrastructure	-6846
▁sorte	-6847
▁accordé	-6848
▁genetic	-6849
▁valable	-6850
▁désignés	-6851
▁acts	-6852
▁chaîne	-6853
▁estime	-6854
▁towards	-6855
▁contient	-6856
▁connaiss	-6857
rième	-6858
▁TOTAL	-6859
▁insta	-6860
▁Central	-6861
▁supplier	-6862
▁équivalent	-6863
medi	-6864
▁pertes	-6865
élimination	-6866
▁TAR	-6867
▁home	-6868
▁1999.	-6869
▁cohér	-6870
ores	-6871
▁might	-6872
▁morale	-6873
CER	-6874
▁Animal	-6875
▁Administ	-6876
▁mentionnés	-6877
né	-6878
▁59	-6879
▁BR	-6880
▁what	-6881
Autriche	-6882
▁chiffre	-6883
▁opening	-6884
▁appliqué	-6885
▁participer	-6886
SA	-6887
20/	-6888
▁dénommée	-6889
▁suitable	-6890
▁developing	-6891
▁permettent	-6892
▁transitoire	-6893
elon	-6894
▁21,	-6895
intég	-6896
▁fair	-6897
▁tiss	-6898
▁textes	-6899
▁secrétariat	-6900
65/	-6901
▁veille	-6902
▁declarations	-6903
▁fournisseur	-6904
▁règle	-6905
▁firm	-6906
▁then	-6907
▁votes	-6908
▁devices	-6909
▁irregular	-6910
(7),	-6911
▁child	-6912
▁Hungary	-6913
intéressé	-6914
▁intéressées	-6915
▁irré	-6916
▁contraire	-6917
▁5)	-6918
ring	-6919
▁EST	-6920
▁impose	-6921
▁globale	-6922
mar	-6923
▁perç	-6924
▁travel	-6925
électricité	-6926
▁family	-6927
▁objectif	-6928
▁located	-6929
▁volaille	-6930
zen	-6931
irable	-6932
▁1994,	-6933
▁payable	-6934
▁commerciaux	-6935
▁(21)	-6936
▁grave	-6937
▁augmenté	-6938
▁superficies	-6939
▁simple	-6940
▁Hongrie	-6941
▁supplies	-6942
eth	-6943
incl	-6944
▁simult	-6945
▁requise	-6946
▁WHICH	-6947
▁choix	-6948
▁calculé	-6949
▁followed	-6950
▁cos	-6951
▁décidé	-6952
▁judicial	-6953
▁facteurs	-6954
after	-6955
▁HAVE	-6956
▁studi	-6957
Amérique	-6958
▁government	-6959
▁respectées	-6960
▁mots	-6961
▁bilan	-6962
▁donne	-6963
iation	-6964
▁command	-6965
▁complied	-6966
▁Sous	-6967
▁marking	-6968
(3).	-6969
tein	-6970
▁opened	-6971
▁électroniques	-6972
▁subdiv	-6973
▁freedom	-6974
▁totalité	-6975
▁envisagées	-6976
83/	-6977
del	-6978
▁traffic	-6979
▁quatrième	-6980
▁path	-6981
▁diplom	-6982
▁coordonn	-6983
unction	-6984
▁exportés	-6985
▁sea	-6986
▁octroyée	-6987
68/	-6988
vre	-6989
▁ME	-6990
▁conventions	-6991
euros	-6992
▁entity	-6993
▁exemple	-6994
▁pourraient	-6995
49	-6996
▁box	-6997
orité	-6998
▁firms	-6999
finitions	-7000
▁programm	-7001
▁prestation	-7002
CT	-7003
▁terre	-7004
▁89/10	-7005
▁),	-7006
idés	-7007
▁Lith	-7008
gh	-7009
▁like	-7010
▁potat	-7011
▁Justice	-7012
03	-7013
▁mm	-7014
71/	-7015
▁1986	-7016
cun	-7017
key	-7018
▁solv	-7019
▁Staff	-7020
▁medical	-7021
▁studies	-7022
AIRE	-7023
▁Since	-7024
▁embry	-7025
▁giving	-7026
▁terres	-7027
▁accident	-7028
▁restriction	-7029
ibral	-7030
▁mort	-7031
▁Lithu	-7032
ditional	-7033
▁présentés	-7034
▁site	-7035
fe	-7036
▁tur	-7037
▁trim	-7038
émission	-7039
adresse	-7040
▁medium	-7041
DP	-7042
initi	-7043
▁sustain	-7044
▁variété	-7045
▁investments	-7046
aid	-7047
▁desquels	-7048
pôt	-7049
▁administrations	-7050
▁dél	-7051
tenant	-7052
▁currency	-7053
▁functions	-7054
▁receiving	-7055
éder	-7056
Irlande	-7057
▁comprend	-7058
▁suffisante	-7059
acy	-7060
▁53	-7061
▁Cy	-7062
cast	-7063
▁séjour	-7064
▁involving	-7065
▁responsables	-7066
CC	-7067
ank	-7068
▁preparations	-7069
▁broad	-7070
ORD	-7071
▁wish	-7072
▁cumul	-7073
▁America	-7074
VER	-7075
(4).	-7076
valuer	-7077
▁réalisés	-7078
▁donnée	-7079
▁défaut	-7080
▁penalties	-7081
▁seulement	-7082
▁68	-7083
▁SUB	-7084
▁Advis	-7085
▁destinée	-7086
atures	-7087
▁norme	-7088
▁plann	-7089
An	-7090
luc	-7091
▁86	-7092
▁GO	-7093
▁1970	-7094
▁quin	-7095
ruction	-7096
▁linked	-7097
▁atteinte	-7098
▁contractante	-7099
▁susmention	-7100
just	-7101
▁Euro	-7102
▁best	-7103
▁empo	-7104
▁reins	-7105
▁maintained	-7106
chés	-7107
limin	-7108
▁distil	-7109
▁imposition	-7110
▁participate	-7111
aises	-7112
▁(22)	-7113
▁Chin	-7114
▁raisins	-7115
▁résidence	-7116
uite	-7117
▁issues	-7118
15	-7119
▁Notwithstanding	-7120
▁effectively	-7121
▁cycle	-7122
▁réponse	-7123
▁Advisory	-7124
▁16.	-7125
▁hom	-7126
iables	-7127
▁excluded	-7128
▁recommandations	-7129
RAPH	-7130
bac	-7131
▁cod	-7132
▁foi	-7133
▁rule	-7134
▁object	-7135
57	-7136
osn	-7137
▁abro	-7138
▁trimest	-7139
▁enforcement	-7140
TIF	-7141
enic	-7142
▁Fed	-7143
▁faits	-7144
▁adopte	-7145
▁durable	-7146
▁disponible	-7147
▁Op	-7148
adapter	-7149
▁dumped	-7150
▁analyse	-7151
▁protéger	-7152
▁améliorer	-7153
▁liability	-7154
▁prévoyant	-7155
▁connaissances	-7156
▁numb	-7157
▁régi	-7158
▁solution	-7159
▁multiplication	-7160
▁priority	-7161
61/	-7162
▁Afric	-7163
▁liber	-7164
▁MEMBER	-7165
▁Mission	-7166
▁reserve	-7167
▁exposure	-7168
▁education	-7169
ITÉ	-7170
embers	-7171
▁actifs	-7172
▁option	-7173
▁1766/92	-7174
▁produce	-7175
▁réunion	-7176
▁collaboration	-7177
ery	-7178
▁annuelle	-7179
▁allowances	-7180
▁investigations	-7181
30/	-7182
▁hect	-7183
▁privé	-7184
accomplissement	-7185
impor	-7186
▁médicament	-7187
▁exportateurs	-7188
ALE	-7189
▁fat	-7190
▁haz	-7191
▁Gibral	-7192
▁Chinese	-7193
▁textiles	-7194
▁formulaire	-7195
dent	-7196
▁response	-7197
èrement	-7198
▁indiquée	-7199
▁territor	-7200
importance	-7201
▁1975	-7202
▁customers	-7203
▁78	-7204
▁life	-7205
▁veiller	-7206
▁originaire	-7207
laire	-7208
▁parcel	-7209
▁1255/1999	-7210
▁supporting	-7211
mi	-7212
▁bru	-7213
▁accompanying	-7214
▁employed	-7215
▁dispositif	-7216
▁destruction	-7217
▁Rom	-7218
anged	-7219
▁virt	-7220
▁réput	-7221
▁cit	-7222
▁expédi	-7223
▁harmful	-7224
▁computer	-7225
▁Gibraltar	-7226
▁references	-7227
▁derived	-7228
▁efficient	-7229
▁précédente	-7230
larg	-7231
yond	-7232
▁dispatch	-7233
▁attention	-7234
▁intermedi	-7235
▁substantial	-7236
uent	-7237
tements	-7238
tendu	-7239
▁136/	-7240
ribunal	-7241
▁obtenu	-7242
▁modèles	-7243
▁protocol	-7244
▁"1.	-7245
▁23,	-7246
▁1985	-7247
▁Bosn	-7248
instru	-7249
▁sheet	-7250
VI	-7251
INE	-7252
▁Rep	-7253
▁[1].	-7254
▁annuels	-7255
▁assistée	-7256
▁existant	-7257
▁réduit	-7258
▁preserv	-7259
▁RÉ	-7260
▁mouve	-7261
▁ratio	-7262
▁subsidy	-7263
▁initiale	-7264
▁mouvements	-7265
idance	-7266
indemn	-7267
▁capitaux	-7268
▁ven	-7269
▁sample	-7270
▁domm	-7271
▁90/425/	-7272
▁approach	-7273
▁assurance	-7274
▁regulated	-7275
Est	-7276
entra	-7277
▁flow	-7278
▁recent	-7279
▁î	-7280
dule	-7281
▁Mil	-7282
▁sep	-7283
▁WHERE	-7284
▁chlor	-7285
▁steel	-7286
▁virtue	-7287
vail	-7288
▁undertake	-7289
▁58	-7290
▁ceil	-7291
▁2006,	-7292
▁reimb	-7293
▁routi	-7294
▁fondament	-7295
▁collective	-7296
90	-7297
▁Bas	-7298
ceptions	-7299
▁autorisées	-7300
▁251	-7301
▁econom	-7302
▁stored	-7303
▁simplifi	-7304
▁suffisamment	-7305
activ	-7306
▁[3].	-7307
tissant	-7308
▁beyond	-7309
▁apparaît	-7310
▁ouvrables	-7311
▁adjustments	-7312
▁Selon	-7313
▁adoptée	-7314
▁Mac	-7315
▁financed	-7316
▁normally	-7317
▁propriété	-7318
▁Li	-7319
rice	-7320
▁vise	-7321
▁recommendations	-7322
ols	-7323
▁OB	-7324
char	-7325
▁pert	-7326
ield	-7327
▁exec	-7328
▁72/46	-7329
▁sound	-7330
▁reporting	-7331
60/	-7332
▁ap	-7333
220/	-7334
esti	-7335
irds	-7336
▁1254	-7337
▁fourni	-7338
tant	-7339
ached	-7340
rought	-7341
▁requér	-7342
▁études	-7343
▁informé	-7344
▁1976	-7345
▁seuil	-7346
▁brought	-7347
prus	-7348
▁reprises	-7349
▁instructions	-7350
ayant	-7351
▁1977	-7352
▁reject	-7353
▁faculté	-7354
▁organes	-7355
oney	-7356
èdent	-7357
arantee	-7358
▁stated	-7359
▁136/66/	-7360
▁chimiques	-7361
▁exporters	-7362
▁consulting	-7363
▁compl	-7364
▁compagn	-7365
/93,	-7366
▁distance	-7367
▁alternative	-7368
URS	-7369
▁faut	-7370
▁délég	-7371
▁Cyprus	-7372
▁designation	-7373
(9	-7374
wing	-7375
▁red	-7376
ancien	-7377
UD	-7378
DER	-7379
▁deal	-7380
▁sett	-7381
opp	-7382
▁PRE	-7383
▁ingre	-7384
▁invent	-7385
▁Members	-7386
affaires	-7387
oin	-7388
ibility	-7389
ugoslav	-7390
▁currently	-7391
agriculture	-7392
orientation	-7393
▁rentabilité	-7394
ologie	-7395
▁propose	-7396
▁communiquer	-7397
▁Nomenclature	-7398
ypre	-7399
▁NCB	-7400
▁régulièrement	-7401
spot	-7402
▁SUR	-7403
▁tun	-7404
▁(23)	-7405
▁îles	-7406
▁dépasser	-7407
▁harmonised	-7408
▁appartenant	-7409
exper	-7410
▁alors	-7411
▁juridiques	-7412
▁ratification	-7413
ATS	-7414
▁Sh	-7415
▁integrated	-7416
▁soumission	-7417
ars	-7418
isp	-7419
▁employees	-7420
▁intéressés	-7421
roc	-7422
▁mun	-7423
▁Chypre	-7424
▁conducted	-7425
▁soumettre	-7426
▁appliquent	-7427
▁prevention	-7428
ECA	-7429
ALES	-7430
arité	-7431
udget	-7432
▁faible	-7433
▁marine	-7434
▁passagers	-7435
▁enregistrés	-7436
29/	-7437
AGE	-7438
oper	-7439
▁trente	-7440
cs	-7441
day	-7442
▁Imp	-7443
▁concours	-7444
▁negative	-7445
▁RT	-7446
▁178	-7447
wered	-7448
▁discip	-7449
FER	-7450
.196	-7451
▁Ins	-7452
blement	-7453
▁différences	-7454
....	-7455
▁back	-7456
▁cult	-7457
▁entire	-7458
▁régional	-7459
▁Paragraph	-7460
▁importante	-7461
▁Sloven	-7462
▁exécut	-7463
▁forest	-7464
▁relate	-7465
tiquette	-7466
▁trading	-7467
▁arrangement	-7468
▁transferred	-7469
rative	-7470
urement	-7471
▁famille	-7472
▁significantly	-7473
year	-7474
▁poste	-7475
▁assure	-7476
▁threat	-7477
▁précédent	-7478
▁satisfait	-7479
opér	-7480
▁Non	-7481
▁summ	-7482
▁toxic	-7483
ractions	-7484
▁Exercice	-7485
,—	-7486
OIR	-7487
▁PARTI	-7488
▁chois	-7489
▁People	-7490
▁Security	-7491
▁recipient	-7492
▁commitments	-7493
▁quarter	-7494
tel	-7495
▁Banque	-7496
Autorité	-7497
harmonisation	-7498
▁Rules	-7499
▁TRANS	-7500
▁réexamin	-7501
▁allowance	-7502
▁génétique	-7503
osph	-7504
udre	-7505
▁lesdites	-7506
▁traditional	-7507
intermédiaire	-7508
atv	-7509
▁62	-7510
▁85/	-7511
▁QUI	-7512
▁Other	-7513
▁vingtième	-7514
▁Br	-7515
▁88/	-7516
AIRES	-7517
-1	-7518
▁flo	-7519
2004,	-7520
▁fréqu	-7521
▁disting	-7522
▁relèvent	-7523
▁emergency	-7524
étro	-7525
▁500	-7526
▁sauv	-7527
▁1998.	-7528
▁wines	-7529
▁damage	-7530
▁satisfaction	-7531
▁BCN	-7532
▁run	-7533
▁fourth	-7534
▁manufactured	-7535
524/	-7536
nership	-7537
▁franch	-7538
▁losses	-7539
▁ensemble	-7540
▁prospect	-7541
▁cooperate	-7542
▁publicité	-7543
.)	-7544
même	-7545
▁compuls	-7546
▁affecting	-7547
▁Conditions	-7548
installation	-7549
ujet	-7550
▁Latv	-7551
prétation	-7552
▁effected	-7553
▁particuliers	-7554
▁rendement	-7555
▁15.	-7556
▁nutrition	-7557
▁organisms	-7558
ISES	-7559
▁17.	-7560
▁Supplement	-7561
▁constituer	-7562
▁THAT	-7563
ittees	-7564
▁autonom	-7565
▁composants	-7566
▁supplementary	-7567
▁Litu	-7568
▁Mont	-7569
AGRAPH	-7570
▁Budget	-7571
encontre	-7572
▁monnaie	-7573
uellement	-7574
▁Lithuania	-7575
▁dériv	-7576
▁heading	-7577
▁prévenir	-7578
▁confidenti	-7579
ITT	-7580
▁52	-7581
▁exclusively	-7582
▁complémentaire	-7583
77/	-7584
aur	-7585
▁22,	-7586
▁douanes	-7587
▁résulte	-7588
▁Protection	-7589
▁déterminées	-7590
auf	-7591
388/	-7592
▁86/36	-7593
orth	-7594
▁nit	-7595
armac	-7596
ously	-7597
▁chargé	-7598
▁aériens	-7599
▁territoires	-7600
oroc	-7601
énie	-7602
▁exch	-7603
aution	-7604
▁confi	-7605
▁exempt	-7606
▁fondée	-7607
▁Lituanie	-7608
▁1991,	-7609
▁porcs	-7610
▁notifié	-7611
▁réserves	-7612
▁PL	-7613
▁ps	-7614
▁perf	-7615
apport	-7616
▁Certain	-7617
▁Kore	-7618
▁removal	-7619
▁acquired	-7620
▁Secretariat	-7621
TO	-7622
▁analogue	-7623
organismes	-7624
▁positions	-7625
▁correspondants	-7626
▁sat	-7627
istry	-7628
▁situé	-7629
▁carcasses	-7630
▁satisfied	-7631
45	-7632
▁enf	-7633
▁etc	-7634
▁STAT	-7635
▁expected	-7636
▁mutuelle	-7637
leg	-7638
▁pac	-7639
▁reached	-7640
lier	-7641
▁189	-7642
▁appears	-7643
▁forwarded	-7644
▁conséquences	-7645
assi	-7646
▁prepared	-7647
▁Executive	-7648
▁»,	-7649
come	-7650
▁bel	-7651
▁(199	-7652
cta	-7653
crim	-7654
ample	-7655
▁0,05	-7656
▁tenus	-7657
▁élabor	-7658
▁70/524/	-7659
▁refuser	-7660
▁technology	-7661
▁transmises	-7662
23/	-7663
VENT	-7664
▁Saf	-7665
▁More	-7666
▁succ	-7667
▁1990,	-7668
▁minist	-7669
▁figurer	-7670
QUES	-7671
▁Car	-7672
moins	-7673
▁plas	-7674
▁allant	-7675
▁discrimin	-7676
-200	-7677
▁India	-7678
atories	-7679
▁passenger	-7680
▁transmitted	-7681
▁sul	-7682
▁fuel	-7683
▁exportation	-7684
ik	-7685
▁baisse	-7686
▁réalisées	-7687
▁63	-7688
▁favourable	-7689
interdiction	-7690
▁officielles	-7691
cas	-7692
▁Fis	-7693
aquaculture	-7694
ABLE	-7695
rétaire	-7696
stant	-7697
▁1784	-7698
▁spread	-7699
initiative	-7700
▁préférenti	-7701
GE	-7702
èvre	-7703
▁87,	-7704
alian	-7705
▁rôle	-7706
▁around	-7707
▁utiles	-7708
▁comptables	-7709
▁MO	-7710
▁kind	-7711
▁manufacturing	-7712
ax	-7713
acco	-7714
alco	-7715
delà	-7716
▁agg	-7717
▁banan	-7718
▁spirit	-7719
▁empowered	-7720
amento	-7721
▁indisp	-7722
ock	-7723
(3)(	-7724
istan	-7725
▁derniers	-7726
▁estimated	-7727
▁Rule	-7728
▁[2].	-7729
▁exha	-7730
▁expire	-7731
▁Estonia	-7732
▁emission	-7733
▁Programme	-7734
▁competence	-7735
MO	-7736
bi	-7737
comm	-7738
▁beginning	-7739
▁répondant	-7740
▁permanente	-7741
▁prescrit	-7742
entreprises	-7743
▁subsequently	-7744
èce	-7745
though	-7746
▁possession	-7747
▁comptabilité	-7748
olv	-7749
▁XI	-7750
▁slo	-7751
ather	-7752
unité	-7753
active	-7754
▁param	-7755
▁press	-7756
82/	-7757
▁89/39	-7758
▁tabac	-7759
ivalence	-7760
▁suspend	-7761
▁PARAGRAPH	-7762
▁existants	-7763
▁interdire	-7764
▁satisfont	-7765
▁stratégie	-7766
IVE	-7767
▁adjudication	-7768
▁collect	-7769
▁effectiveness	-7770
anmoins	-7771
▁commenc	-7772
▁composé	-7773
▁replace	-7774
dic	-7775
▁384	-7776
▁exiger	-7777
▁classes	-7778
▁pleinement	-7779
▁dénominations	-7780
ycl	-7781
oine	-7782
▁2007	-7783
▁comptable	-7784
▁navigation	-7785
AF	-7786
ck	-7787
59/	-7788
▁drawing	-7789
▁chiffres	-7790
▁échantillons	-7791
▁supprimé	-7792
▁raisonnable	-7793
▁Greece	-7794
▁agricul	-7795
▁Bulgaria	-7796
▁assigned	-7797
▁considère	-7798
▁bénéficient	-7799
▁Turkey	-7800
▁farmers	-7801
▁inspect	-7802
▁dimension	-7803
ah	-7804
anci	-7805
▁nam	-7806
▁letters	-7807
édération	-7808
▁improvement	-7809
UST	-7810
bile	-7811
tenir	-7812
▁précité	-7813
▁positive	-7814
▁concentrations	-7815
The	-7816
▁(24)	-7817
▁instit	-7818
▁therein	-7819
▁cultures	-7820
▁définitions	-7821
▁front	-7822
▁distillation	-7823
itors	-7824
▁rise	-7825
▁exécu	-7826
rozen	-7827
▁conclure	-7828
▁désigner	-7829
▁enterprises	-7830
▁Ber	-7831
▁couvre	-7832
▁reviewed	-7833
▁desirable	-7834
idae	-7835
/118/	-7836
▁facts	-7837
▁vendu	-7838
quement	-7839
▁Romania	-7840
▁forfaitaire	-7841
▁transporteurs	-7842
▁now	-7843
export	-7844
lucose	-7845
▁pollu	-7846
▁financ	-7847
▁dernières	-7848
▁indépendant	-7849
▁REL	-7850
▁depar	-7851
▁prescribed	-7852
▁confirmation	-7853
▁Malta	-7854
exploit	-7855
▁fourra	-7856
▁couvertes	-7857
▁géographiques	-7858
AIS	-7859
lam	-7860
▁exon	-7861
▁bival	-7862
▁reach	-7863
▁title	-7864
▁comporter	-7865
ame	-7866
▁Malte	-7867
échanges	-7868
▁charged	-7869
quant	-7870
▁whom	-7871
umanie	-7872
▁traite	-7873
▁compared	-7874
▁renouvel	-7875
▁sustainable	-7876
omic	-7877
▁arom	-7878
▁indispens	-7879
▁infringement	-7880
'.	-7881
▁visa	-7882
▁desdites	-7883
▁décrites	-7884
▁Guarantee	-7885
▁comparison	-7886
▁erad	-7887
▁Grèce	-7888
▁datab	-7889
▁obtenir	-7890
▁prestat	-7891
▁stud	-7892
▁Bulgarie	-7893
▁progressive	-7894
▁transitoires	-7895
▁&	-7896
▁23.	-7897
▁Lett	-7898
▁gross	-7899
▁impar	-7900
▁pommes	-7901
▁AT	-7902
▁0,1	-7903
▁GATT	-7904
▁Purs	-7905
▁Proced	-7906
▁conferred	-7907
▁matériaux	-7908
exposition	-7909
▁compulsory	-7910
▁perfection	-7911
▁larg	-7912
mental	-7913
▁Follow	-7914
▁Roumanie	-7915
▁practical	-7916
iring	-7917
▁ferro	-7918
amental	-7919
related	-7920
▁Within	-7921
▁proceeding	-7922
▁similaire	-7923
▁establishes	-7924
▁113	-7925
▁24,	-7926
▁1972	-7927
▁ouvert	-7928
▁composés	-7929
▁diffusion	-7930
▁éventuelle	-7931
cont	-7932
iche	-7933
▁sout	-7934
▁border	-7935
▁comprom	-7936
▁intégré	-7937
acquisition	-7938
▁accompagné	-7939
▁Chain	-7940
▁concerns	-7941
▁opportunity	-7942
▁professionnel	-7943
▁correspondantes	-7944
erer	-7945
alcool	-7946
▁numbers	-7947
▁certifiées	-7948
▁comparaison	-7949
▁sufficiently	-7950
42	-7951
▁hydro	-7952
▁élect	-7953
▁Subject	-7954
▁textile	-7955
▁Secretary	-7956
▁appropriations	-7957
▁61	-7958
inated	-7959
▁bilat	-7960
▁Turquie	-7961
▁assessed	-7962
▁orientations	-7963
▁2092	-7964
▁notifier	-7965
ricultural	-7966
▁NE	-7967
Ital	-7968
THER	-7969
érale	-7970
▁CONTR	-7971
▁gain	-7972
▁satell	-7973
▁selling	-7974
▁Lettonie	-7975
ony	-7976
2000	-7977
tity	-7978
▁CONCER	-7979
▁Latvia	-7980
▁restricted	-7981
▁cooperating	-7982
548/	-7983
▁yet	-7984
▁Those	-7985
discrim	-7986
▁perturb	-7987
▁revised	-7988
effectuer	-7989
▁carriage	-7990
▁contexte	-7991
)."	-7992
▁age	-7993
crits	-7994
omique	-7995
▁explo	-7996
▁ensuite	-7997
▁PRODUCTS	-7998
▁Pursuant	-7999
▁effectif	-8000
▁modifiés	-8001
▁formalités	-8002
agnes	-8003
iteur	-8004
▁sûre	-8005
▁range	-8006
▁tract	-8007
▁solely	-8008
▁interpret	-8009
FORM	-8010
▁Slovenia	-8011
▁suspended	-8012
▁recommendation	-8013
▁30,	-8014
▁Let	-8015
homme	-8016
MR	-8017
aring	-8018
▁PROCED	-8019
▁restre	-8020
▁breeding	-8021
▁COND	-8022
▁divul	-8023
▁increasing	-8024
ão	-8025
ECT	-8026
▁sex	-8027
▁sortie	-8028
▁incidence	-8029
▁remplacer	-8030
▁67/	-8031
▁pigs	-8032
uelles	-8033
▁pursu	-8034
▁forces	-8035
▁length	-8036
▁incompatible	-8037
tent	-8038
édant	-8039
▁help	-8040
▁rési	-8041
▁voix	-8042
actory	-8043
▁yield	-8044
▁Aud	-8045
▁centr	-8046
▁explic	-8047
▁Exchange	-8048
▁antérieure	-8049
▁rapidement	-8050
▁augmentation	-8051
mouth	-8052
▁acte	-8053
▁INTER	-8054
▁72/462/	-8055
▁acceptable	-8056
▁PRC	-8057
▁tob	-8058
érées	-8059
▁specim	-8060
▁surveys	-8061
fs	-8062
ENS	-8063
▁Wor	-8064
ronti	-8065
▁farmer	-8066
▁avaient	-8067
▁fournis	-8068
▁connaître	-8069
▁aquaculture	-8070
▁formalities	-8071
▁83	-8072
▁371	-8073
ecter	-8074
arition	-8075
▁stable	-8076
▁recognized	-8077
érim	-8078
illes	-8079
▁relève	-8080
assement	-8081
▁Slovénie	-8082
▁rembours	-8083
craft	-8084
▁abat	-8085
▁furn	-8086
térieurs	-8087
▁significative	-8088
/44	-8089
▁Ass	-8090
▁vic	-8091
▁Meas	-8092
ialogue	-8093
▁placement	-8094
▁continuation	-8095
08/	-8096
abrog	-8097
▁pron	-8098
▁self	-8099
itimes	-8100
▁complète	-8101
▁détermine	-8102
▁intérieures	-8103
TAIN	-8104
▁fee	-8105
border	-8106
égalité	-8107
▁PRESENT	-8108
▁tot	-8109
▁détail	-8110
▁ventil	-8111
▁profitability	-8112
▁73	-8113
▁olé	-8114
▁intel	-8115
▁Russie	-8116
▁ferrovi	-8117
▁morales	-8118
▁complaint	-8119
▁administratif	-8120
arer	-8121
lit	-8122
aiwan	-8123
▁abol	-8124
▁concernent	-8125
▁diagnostic	-8126
▁constitutes	-8127
rm	-8128
ulé	-8129
▁créer	-8130
▁pharmac	-8131
▁intégrée	-8132
▁compétents	-8133
▁attestation	-8134
▁laboratoires	-8135
utting	-8136
▁marques	-8137
▁148	-8138
▁centrales	-8139
▁contenues	-8140
ops	-8141
▁6)	-8142
Estonie	-8143
▁objets	-8144
▁compound	-8145
▁demandée	-8146
unt	-8147
▁cô	-8148
nover	-8149
▁Nord	-8150
log	-8151
ordning	-8152
▁reçues	-8153
▁adresse	-8154
▁admission	-8155
Ass	-8156
isme	-8157
▁CER	-8158
▁3223	-8159
▁hours	-8160
▁atomique	-8161
▁deadline	-8162
ean	-8163
ught	-8164
▁Pre	-8165
observ	-8166
▁survey	-8167
▁Moreover	-8168
▁carriers	-8169
▁précédant	-8170
ARD	-8171
▁souci	-8172
▁propagation	-8173
KING	-8174
▁how	-8175
ensions	-8176
▁pathog	-8177
▁division	-8178
▁transparence	-8179
▁(25)	-8180
▁aéro	-8181
▁empê	-8182
▁Taiwan	-8183
▁couvert	-8184
▁révision	-8185
▁partenaires	-8186
POL	-8187
▁73/	-8188
▁van	-8189
ITTEE	-8190
▁appareils	-8191
▁controlled	-8192
▁mécanismes	-8193
▁represented	-8194
▁preferential	-8195
alled	-8196
▁interv	-8197
▁tenderer	-8198
augmentation	-8199
▁countervail	-8200
ware	-8201
▁accur	-8202
adopter	-8203
▁removed	-8204
▁Administrative	-8205
quée	-8206
▁Deta	-8207
▁67/548/	-8208
améliorer	-8209
▁exercice	-8210
▁protégées	-8211
▁contamination	-8212
uré	-8213
▁CC	-8214
▁ox	-8215
ecially	-8216
▁tobacco	-8217
▁repealing	-8218
▁prohibition	-8219
▁ém	-8220
finan	-8221
▁Atomic	-8222
▁complét	-8223
▁introduce	-8224
PE	-8225
/95,	-8226
/96,	-8227
▁Japan	-8228
▁mieux	-8229
▁énerg	-8230
▁parven	-8231
▁COMMITTEE	-8232
▁departure	-8233
▁structural	-8234
ômes	-8235
▁symb	-8236
▁makes	-8237
▁nucléaires	-8238
▁consignments	-8239
bal	-8240
alinéa	-8241
▁exercer	-8242
▁poissons	-8243
▁agriculture	-8244
uves	-8245
zone	-8246
▁wild	-8247
▁Berlin	-8248
▁additionnel	-8249
yn	-8250
venth	-8251
▁1978	-8252
/1999.	-8253
▁birds	-8254
▁peste	-8255
▁contains	-8256
▁includes	-8257
urée	-8258
▁rub	-8259
▁Prov	-8260
▁parmi	-8261
urrence	-8262
avantage	-8263
▁1260/2001	-8264
▁Following	-8265
▁comportent	-8266
▁(7),	-8267
▁fili	-8268
▁entrée	-8269
▁pending	-8270
▁industries	-8271
▁débar	-8272
▁abrogé	-8273
▁comités	-8274
▁avantages	-8275
interprétation	-8276
▁acid	-8277
▁oils	-8278
▁tour	-8279
▁previously	-8280
▁secrétaire	-8281
▁marchandise	-8282
55/	-8283
net	-8284
ull	-8285
ione	-8286
▁Pays	-8287
▁shows	-8288
dication	-8289
▁adapted	-8290
lecommunications	-8291
53/	-8292
gins	-8293
based	-8294
▁tenue	-8295
▁montré	-8296
abattage	-8297
utiliser	-8298
▁septième	-8299
SI	-8300
78/	-8301
examin	-8302
▁imput	-8303
▁Before	-8304
▁broken	-8305
▁2081/92	-8306
▁reflect	-8307
▁success	-8308
▁obstacle	-8309
▁abrogeant	-8310
▁bilateral	-8311
fficiency	-8312
▁departments	-8313
▁concentrated	-8314
chi	-8315
/18/	-8316
▁périodique	-8317
▁harmonisation	-8318
▁[6	-8319
▁1981	-8320
▁migr	-8321
▁offre	-8322
▁foreign	-8323
▁800	-8324
obtenir	-8325
▁terror	-8326
▁offices	-8327
▁groupement	-8328
▁entièrement	-8329
zed	-8330
questing	-8331
▁récolte	-8332
▁decreased	-8333
▁proposées	-8334
hom	-8335
▁25,	-8336
▁PAY	-8337
ctare	-8338
▁user	-8339
(8)	-8340
5000	-8341
▁(13	-8342
▁prud	-8343
riques	-8344
▁Princip	-8345
▁discharge	-8346
▁changement	-8347
▁conjunction	-8348
▁normalement	-8349
vo	-8350
eux	-8351
/199	-8352
alisation	-8353
▁contrôler	-8354
▁especially	-8355
▁UNDER	-8356
▁banques	-8357
▁disturb	-8358
▁dialogue	-8359
▁nuis	-8360
▁formes	-8361
▁rational	-8362
▁initiatives	-8363
▁fournisseurs	-8364
56	-8365
▁jou	-8366
Italie	-8367
usting	-8368
érales	-8369
▁Avant	-8370
▁primes	-8371
▁belonging	-8372
▁frontières	-8373
▁84	-8374
oise	-8375
▁arch	-8376
▁diox	-8377
▁role	-8378
▁coming	-8379
▁rapide	-8380
autoriser	-8381
▁contraign	-8382
▁favoriser	-8383
▁regularly	-8384
▁(*)	-8385
▁1997.	-8386
▁remed	-8387
▁fièvre	-8388
▁hazard	-8389
▁adopter	-8390
▁CONSIDER	-8391
▁spéciale	-8392
▁utilisant	-8393
▁croissance	-8394
▁fees	-8395
▁89/106/	-8396
▁economy	-8397
▁Comb	-8398
▁fusion	-8399
▁traités	-8400
▁solutions	-8401
▁éventuelles	-8402
▁utilisations	-8403
▁qualification	-8404
34/	-8405
▁illic	-8406
▁excess	-8407
▁régionale	-8408
▁disclosure	-8409
▁assi	-8410
ystème	-8411
▁start	-8412
▁figures	-8413
▁summary	-8414
▁identify	-8415
tag	-8416
gien	-8417
Islande	-8418
herlands	-8419
▁3223/94	-8420
▁immediate	-8421
▁replacement	-8422
▁operate	-8423
▁diminué	-8424
▁publier	-8425
▁[4]	-8426
▁(26)	-8427
▁Form	-8428
Espace	-8429
▁ingré	-8430
▁Islands	-8431
▁disposer	-8432
▁seraient	-8433
▁interpretation	-8434
appel	-8435
▁reço	-8436
▁accorder	-8437
▁carcases	-8438
▁kilograms	-8439
▁déterminés	-8440
éron	-8441
▁80/	-8442
▁cep	-8443
▁fiscal	-8444
▁ouverte	-8445
▁disposent	-8446
▁fem	-8447
▁starch	-8448
occasion	-8449
▁journal	-8450
▁précède	-8451
▁transported	-8452
▁remun	-8453
▁récup	-8454
reements	-8455
▁Ukraine	-8456
▁checking	-8457
▁accidents	-8458
▁indicating	-8459
rets	-8460
▁expert	-8461
▁parent	-8462
▁supervisory	-8463
member	-8464
▁fields	-8465
▁Technical	-8466
▁eradication	-8467
Com	-8468
▁3;	-8469
▁19.	-8470
▁Che	-8471
theless	-8472
▁client	-8473
▁énoncés	-8474
mer	-8475
▁1291	-8476
▁exige	-8477
iterranean	-8478
▁sil	-8479
intes	-8480
ional	-8481
tiennent	-8482
▁aircraft	-8483
▁conduite	-8484
▁turnover	-8485
▁cependant	-8486
▁improving	-8487
rab	-8488
▁1979	-8489
▁déro	-8490
▁1995.	-8491
▁constate	-8492
▁opinions	-8493
▁mécanisme	-8494
▁protective	-8495
(5).	-8496
erie	-8497
▁adéquate	-8498
ext	-8499
▁payer	-8500
▁seventh	-8501
crire	-8502
▁délivrée	-8503
▁recouvre	-8504
▁introduit	-8505
▁Conference	-8506
▁requesting	-8507
▁laboratories	-8508
èse	-8509
▁Sc	-8510
▁dated	-8511
▁Italian	-8512
▁failure	-8513
▁agissant	-8514
atte	-8515
tail	-8516
▁itali	-8517
▁define	-8518
▁écrite	-8519
▁restent	-8520
▁adjusting	-8521
▁importing	-8522
▁remaining	-8523
éradication	-8524
▁rémunération	-8525
62/	-8526
nov	-8527
ecte	-8528
▁18.	-8529
ettes	-8530
éraux	-8531
▁National	-8532
▁strategy	-8533
apparition	-8534
▁bénéficiant	-8535
▁simplification	-8536
mitted	-8537
▁colour	-8538
▁forese	-8539
▁strict	-8540
▁64/432/	-8541
▁packages	-8542
▁Agreements	-8543
▁détaillées	-8544
tte	-8545
▁29,	-8546
▁Cet	-8547
▁Ste	-8548
▁crops	-8549
▁végét	-8550
▁annexé	-8551
▁Opinion	-8552
réciation	-8553
▁comprennent	-8554
▁phytosanitaire	-8555
sent	-8556
▁31,	-8557
▁Her	-8558
▁cession	-8559
▁Netherlands	-8560
uge	-8561
▁calculating	-8562
▁vérifications	-8563
▁remise	-8564
▁identity	-8565
▁poultrymeat	-8566
(8),	-8567
irst	-8568
▁"2.	-8569
▁coll	-8570
▁merg	-8571
▁veal	-8572
▁arrêté	-8573
▁Auditors	-8574
▁Detailed	-8575
▁developed	-8576
▁infractions	-8577
▁transparency	-8578
ira	-8579
agence	-8580
▁engine	-8581
attestation	-8582
pon	-8583
▁frequ	-8584
▁petites	-8585
▁whereby	-8586
▁captures	-8587
iting	-8588
▁half	-8589
▁Entry	-8590
▁modes	-8591
▁appeal	-8592
▁degree	-8593
▁consequently	-8594
▁AB	-8595
échel	-8596
▁Serv	-8597
▁lamp	-8598
▁updated	-8599
▁ho	-8600
empê	-8601
influ	-8602
▁commence	-8603
▁designations	-8604
FL	-8605
èle	-8606
isis	-8607
▁CEL	-8608
landaise	-8609
▁continued	-8610
▁suppression	-8611
ging	-8612
▁26,	-8613
▁Cel	-8614
iaire	-8615
▁Letters	-8616
▁présents	-8617
▁efficiency	-8618
▁indicative	-8619
▁indépendants	-8620
▁sper	-8621
▁immun	-8622
European	-8623
▁réalisé	-8624
▁excessive	-8625
▁introducing	-8626
dig	-8627
ancel	-8628
▁0,05*	-8629
▁arbit	-8630
▁domes	-8631
▁leave	-8632
▁package	-8633
▁PRODUITS	-8634
▁monétaire	-8635
`;	-8636
▁Milk	-8637
▁deme	-8638
ARTICLE	-8639
▁rejected	-8640
infraction	-8641
▁proportionn	-8642
éti	-8643
▁approve	-8644
▁equidae	-8645
▁Combined	-8646
▁avan	-8647
▁remor	-8648
▁étroite	-8649
.`;	-8650
▁IT	-8651
▁Vi	-8652
jours	-8653
▁concer	-8654
▁bateaux	-8655
▁biologique	-8656
22/	-8657
▁1257	-8658
▁sites	-8659
▁intérim	-8660
▁mechanism	-8661
▁officiels	-8662
▁harmonisées	-8663
12	-8664
ENCE	-8665
▁cri	-8666
▁1982	-8667
▁bound	-8668
▁System	-8669
▁vendus	-8670
▁airport	-8671
Assemblée	-8672
▁appliquée	-8673
▁reinsurance	-8674
odder	-8675
▁aimed	-8676
raisons	-8677
▁elimin	-8678
▁sûreté	-8679
▁contrary	-8680
▁potatoes	-8681
▁satellite	-8682
▁sensibles	-8683
tili	-8684
ways	-8685
▁deleg	-8686
aliments	-8687
57/	-8688
▁quelle	-8689
▁bearing	-8690
▁spéciales	-8691
▁(27)	-8692
▁cinqu	-8693
▁deposit	-8694
▁désigne	-8695
▁associés	-8696
▁entering	-8697
▁frontière	-8698
▁complement	-8699
▁Organisation	-8700
▁DR	-8701
▁tu	-8702
▁blo	-8703
itals	-8704
▁manip	-8705
produits	-8706
▁applicants	-8707
▁mobilières	-8708
▁fournissent	-8709
▁liquidation	-8710
IAL	-8711
umin	-8712
▁care	-8713
▁clim	-8714
tivity	-8715
▁Korea	-8716
▁scale	-8717
▁Position	-8718
▁candidats	-8719
UES	-8720
avant	-8721
▁pétro	-8722
▁growth	-8723
▁assujet	-8724
▁statuts	-8725
▁veterin	-8726
incidence	-8727
▁partenariat	-8728
▁040	-8729
▁allem	-8730
▁performed	-8731
phte	-8732
▁isol	-8733
▁liée	-8734
▁aphte	-8735
▁semen	-8736
▁assurée	-8737
▁contest	-8738
▁reimbur	-8739
▁missions	-8740
MIN	-8741
▁haute	-8742
▁namely	-8743
pl	-8744
▁wa	-8745
ERSON	-8746
▁10000	-8747
▁Basic	-8748
▁Safety	-8749
▁primary	-8750
▁taxable	-8751
▁fabriqués	-8752
▁introduites	-8753
▁représentatifs	-8754
kel	-8755
▁2(	-8756
▁enj	-8757
▁Publ	-8758
▁Sauf	-8759
▁Belgium	-8760
LIA	-8761
▁PT	-8762
ennes	-8763
▁banque	-8764
▁défense	-8765
▁apporter	-8766
▁bénéfices	-8767
▁exceptions	-8768
76/	-8769
▁PET	-8770
▁lien	-8771
▁build	-8772
▁postes	-8773
▁accompl	-8774
▁finance	-8775
▁classifi	-8776
▁transfront	-8777
`,	-8778
▁96/4	-8779
▁PARLIA	-8780
▁77/388/	-8781
▁toujours	-8782
amens	-8783
▁sang	-8784
▁affix	-8785
▁graves	-8786
▁Regions	-8787
▁exceeded	-8788
importateur	-8789
▁liabilities	-8790
▁specifically	-8791
▁21.	-8792
▁task	-8793
▁fibre	-8794
▁dispar	-8795
▁exceeds	-8796
opérateur	-8797
▁selected	-8798
▁compensatoires	-8799
▁OP	-8800
illa	-8801
oses	-8802
▁Bru	-8803
▁flex	-8804
▁sheep	-8805
▁labour	-8806
▁consulted	-8807
▁contrepar	-8808
▁producing	-8809
▁PARLIAMENT	-8810
bon	-8811
giè	-8812
▁TRA	-8813
▁MEMBRES	-8814
▁opportunities	-8815
▁féd	-8816
giène	-8817
▁1987,	-8818
▁crisis	-8819
▁quelque	-8820
▁valables	-8821
▁réassurance	-8822
00/	-8823
réci	-8824
▁times	-8825
▁mondiale	-8826
▁comprenant	-8827
▁couverture	-8828
▁reductions	-8829
▁généralement	-8830
gyp	-8831
▁pil	-8832
▁week	-8833
▁perte	-8834
▁révis	-8835
▁licens	-8836
▁initiation	-8837
FIN	-8838
raz	-8839
▁67	-8840
going	-8841
▁flat	-8842
▁fodder	-8843
▁complying	-8844
(1).	-8845
▁nomm	-8846
resent	-8847
▁notifie	-8848
imposition	-8849
ders	-8850
▁cle	-8851
▁enh	-8852
▁95/4	-8853
aucune	-8854
▁subhe	-8855
▁creation	-8856
▁justific	-8857
▁28,	-8858
▁soul	-8859
▁3719/	-8860
▁Corée	-8861
▁entité	-8862
▁distill	-8863
▁foresti	-8864
▁adopting	-8865
▁Additional	-8866
rug	-8867
quées	-8868
uiles	-8869
ustral	-8870
▁Verord	-8871
▁multilat	-8872
▁transfér	-8873
▁exemptions	-8874
▁Agricultural	-8875
.12	-8876
infr	-8877
appui	-8878
▁Sont	-8879
GB	-8880
car	-8881
▁conférence	-8882
▁accompagnés	-8883
ado	-8884
arch	-8885
iding	-8886
▁audi	-8887
▁hous	-8888
ountry	-8889
▁Belar	-8890
▁frozen	-8891
▁capable	-8892
▁examiné	-8893
▁1784/2003	-8894
14	-8895
:"	-8896
ARY	-8897
ESS	-8898
icole	-8899
▁soix	-8900
▁envoy	-8901
hygiène	-8902
▁PERSON	-8903
▁analog	-8904
▁recycl	-8905
▁plainte	-8906
▁substit	-8907
▁thereby	-8908
▁committed	-8909
atriculation	-8910
▁PS	-8911
▁volon	-8912
▁observed	-8913
▁prospectus	-8914
▁structurel	-8915
sh	-8916
Bas	-8917
▁(1).	-8918
▁Land	-8919
ruption	-8920
▁connected	-8921
ïs	-8922
▁maïs	-8923
▁mobile	-8924
▁ES	-8925
ITES	-8926
ives	-8927
▁boissons	-8928
▁européens	-8929
▁face	-8930
experts	-8931
mination	-8932
règlement	-8933
▁compatibles	-8934
▁considérants	-8935
98	-8936
holders	-8937
▁affectées	-8938
▁authorize	-8939
▁irrégular	-8940
▁ingredients	-8941
eu	-8942
▁1968	-8943
▁stages	-8944
GF	-8945
ACE	-8946
euro	-8947
▁(28)	-8948
▁médec	-8949
ACT	-8950
4/68	-8951
▁30.	-8952
était	-8953
▁1984	-8954
▁alle	-8955
▁Belgique	-8956
▁normales	-8957
▁importées	-8958
▁political	-8959
▁commitment	-8960
▁représente	-8961
▁négociation	-8962
/12/	-8963
usted	-8964
▁Acting	-8965
▁hausse	-8966
▁Eurostat	-8967
équipement	-8968
▁engagement	-8969
▁introduite	-8970
osp	-8971
reen	-8972
▁Mes	-8973
chlor	-8974
uropol	-8975
▁expla	-8976
▁Entrée	-8977
▁taille	-8978
olutions	-8979
économie	-8980
▁ajoutés	-8981
▁CONDITIONS	-8982
▁forfaitaires	-8983
UX	-8984
PAR	-8985
▁chamb	-8986
▁dried	-8987
▁Import	-8988
▁breach	-8989
▁créances	-8990
▁thereafter	-8991
ief	-8992
▁GDP	-8993
▁1983	-8994
accorder	-8995
▁Develop	-8996
▁produire	-8997
▁PARLEMENT	-8998
▁processes	-8999
Comm	-9000
▁degré	-9001
▁espèce	-9002
▁owners	-9003
▁guaranteed	-9004
▁integration	-9005
▁BAS	-9006
judici	-9007
▁brucel	-9008
▁limité	-9009
▁preven	-9010
▁élimin	-9011
identité	-9012
▁assimil	-9013
▁entendu	-9014
▁accompagnée	-9015
/18	-9016
ouv	-9017
▁(4);	-9018
▁appos	-9019
▁considéra	-9020
▁accessible	-9021
▁Agriculture	-9022
▁entitlement	-9023
DF	-9024
52/	-9025
ITY	-9026
âge	-9027
rain	-9028
(2005)	-9029
▁therm	-9030
accords	-9031
èges	-9032
▁doub	-9033
▁cohérence	-9034
▁quantitatives	-9035
▁++	-9036
▁tol	-9037
opath	-9038
▁++++	-9039
▁ANNEX	-9040
▁Comme	-9041
▁somme	-9042
▁revenus	-9043
▁relationship	-9044
▁Ph	-9045
▁CAS	-9046
▁Ter	-9047
▁whol	-9048
▁retail	-9049
▁simplified	-9050
▁suffisantes	-9051
75/	-9052
▁sch	-9053
riers	-9054
▁rappel	-9055
▁sanction	-9056
▁execution	-9057
▁impossible	-9058
▁intérimaire	-9059
▁29.	-9060
▁PER	-9061
▁Sud	-9062
▁fever	-9063
▁tiennent	-9064
▁produites	-9065
▁remuneration	-9066
poth	-9067
▁09.	-9068
▁27,	-9069
organe	-9070
country	-9071
▁wholly	-9072
sivement	-9073
▁Special	-9074
▁demandées	-9075
▁intellect	-9076
▁pesticide	-9077
▁Resolution	-9078
▁competitive	-9079
▁perspective	-9080
▁catal	-9081
▁ressort	-9082
▁technological	-9083
▁poudre	-9084
▁versée	-9085
agnement	-9086
▁military	-9087
▁génétiquement	-9088
54/	-9089
▁».	-9090
toir	-9091
▁drin	-9092
▁South	-9093
▁entail	-9094
▁paying	-9095
▁officer	-9096
▁actuelle	-9097
▁instance	-9098
oncé	-9099
▁Eurojust	-9100
▁obtaining	-9101
▁admin	-9102
introdu	-9103
▁diminution	-9104
▁travailleur	-9105
ENER	-9106
▁3,5	-9107
▁ARE	-9108
impôt	-9109
▁entr	-9110
▁warr	-9111
▁catch	-9112
▁outcome	-9113
▁introduits	-9114
43	-9115
IK	-9116
itter	-9117
ually	-9118
illing	-9119
xelles	-9120
▁démocra	-9121
▁remplir	-9122
▁violation	-9123
▁pertinents	-9124
▁écologique	-9125
▁comparables	-9126
▁veterinarian	-9127
accompagnement	-9128
▁confidentiality	-9129
▁mus	-9130
ilibre	-9131
liminary	-9132
▁Belarus	-9133
▁CONCERN	-9134
▁desdits	-9135
▁qualify	-9136
▁allowing	-9137
▁dénommés	-9138
▁resolution	-9139
▁page	-9140
▁engin	-9141
▁ground	-9142
▁hygien	-9143
▁suivent	-9144
▁Bruxelles	-9145
▁passengers	-9146
▁régionales	-9147
▁interventions	-9148
ève	-9149
▁DO	-9150
▁mas	-9151
inant	-9152
▁took	-9153
▁OTHER	-9154
▁complex	-9155
▁grasses	-9156
▁obtenues	-9157
▁meilleurs	-9158
▁individuels	-9159
▁Consequently	-9160
IZ	-9161
(10	-9162
▁JOINT	-9163
▁blood	-9164
▁enfants	-9165
▁individuel	-9166
▁réparation	-9167
▁af	-9168
Inde	-9169
▁POS	-9170
▁adverse	-9171
▁chinois	-9172
▁acquisition	-9173
▁TER	-9174
▁During	-9175
▁argued	-9176
▁modern	-9177
▁calculée	-9178
▁handling	-9179
▁habilitée	-9180
▁stabilité	-9181
16	-9182
charg	-9183
immed	-9184
▁menée	-9185
▁white	-9186
otation	-9187
▁retard	-9188
▁PROCEDURE	-9189
astructures	-9190
▁cash	-9191
tising	-9192
exemption	-9193
▁octroyées	-9194
▁warehouse	-9195
▁Char	-9196
▁XIII	-9197
/2002,	-9198
ologation	-9199
▁Chairman	-9200
▁REGLEMENT	-9201
▁poursuivre	-9202
▁satisfactory	-9203
▁+	-9204
itude	-9205
▁Slova	-9206
atrices	-9207
▁limitations	-9208
)(	-9209
/96/	-9210
▁CAR	-9211
▁gel	-9212
▁maize	-9213
▁interim	-9214
▁liberté	-9215
▁Slovaquie	-9216
▁constituée	-9217
25/	-9218
nent	-9219
▁bur	-9220
anced	-9221
insta	-9222
▁Étant	-9223
dessous	-9224
▁WHEREAS	-9225
▁moteurs	-9226
▁profits	-9227
rég	-9228
sec	-9229
ére	-9230
ruit	-9231
▁20.	-9232
seurs	-9233
▁(29)	-9234
▁1971	-9235
ussels	-9236
▁prépar	-9237
▁series	-9238
▁trials	-9239
▁admises	-9240
▁distinct	-9241
opérations	-9242
▁initiated	-9243
▁genetically	-9244
onde	-9245
▁Dès	-9246
▁incom	-9247
▁owner	-9248
ramework	-9249
▁advantage	-9250
intégration	-9251
642/	-9252
▁gram	-9253
▁fermet	-9254
▁Procedure	-9255
▁favorable	-9256
▁consisting	-9257
▁dépassement	-9258
mont	-9259
tings	-9260
▁loan	-9261
▁cancel	-9262
▁transparent	-9263
▁representing	-9264
▁169	-9265
▁San	-9266
/2006	-9267
itzer	-9268
▁(2).	-9269
▁Federal	-9270
▁hectare	-9271
▁urgency	-9272
itzerland	-9273
▁classées	-9274
▁movements	-9275
établissements	-9276
17	-9277
662/	-9278
▁174	-9279
duled	-9280
▁assum	-9281
▁banks	-9282
médiaires	-9283
▁suffered	-9284
▁separately	-9285
ism	-9286
mento	-9287
ancienne	-9288
▁reconnu	-9289
▁pensions	-9290
▁reported	-9291
▁Qu	-9292
▁ONT	-9293
▁pet	-9294
arrêt	-9295
▁seeds	-9296
▁ensured	-9297
▁interdit	-9298
▁sections	-9299
▁automatic	-9300
▁exécution	-9301
AUX	-9302
alid	-9303
excl	-9304
▁308	-9305
tifier	-9306
éronef	-9307
▁recitals	-9308
▁supplemented	-9309
(6).	-9310
▁From	-9311
▁concept	-9312
▁artifici	-9313
▁simultan	-9314
sification	-9315
▁appliqués	-9316
▁suppliers	-9317
▁cad	-9318
impos	-9319
▁Plant	-9320
effectue	-9321
▁principaux	-9322
rémé	-9323
▁quinze	-9324
▁anticip	-9325
▁fournie	-9326
▁Yugoslav	-9327
▁chargement	-9328
▁contractual	-9329
/13/	-9330
▁MET	-9331
▁tub	-9332
▁retenue	-9333
▁exécutif	-9334
▁consequences	-9335
▁partiellement	-9336
▁50000	-9337
▁places	-9338
▁reducing	-9339
▁1254/1999	-9340
▁2201	-9341
▁alleged	-9342
▁chimique	-9343
▁combusti	-9344
▁reserves	-9345
▁souhaitable	-9346
EST	-9347
▁ep	-9348
essai	-9349
▁grape	-9350
▁Toutes	-9351
▁dispute	-9352
▁campagnes	-9353
▁reconnues	-9354
▁registres	-9355
ECTION	-9356
▁houbl	-9357
▁repay	-9358
tention	-9359
activités	-9360
▁apportées	-9361
▁subordonnée	-9362
▁termination	-9363
utilis	-9364
▁First	-9365
▁retra	-9366
▁excise	-9367
▁marked	-9368
▁déposée	-9369
▁preuves	-9370
▁feu	-9371
▁4(1)	-9372
▁batt	-9373
▁nord	-9374
▁crise	-9375
▁involve	-9376
▁multipli	-9377
▁containers	-9378
▁importantes	-9379
▁agriculteurs	-9380
eks	-9381
gro	-9382
▁Head	-9383
▁loans	-9384
▁congel	-9385
▁planned	-9386
▁sociaux	-9387
▁Slovakia	-9388
▁interval	-9389
▁préalablement	-9390
ajus	-9391
gone	-9392
▁trouv	-9393
▁STATES	-9394
▁choice	-9395
▁suivre	-9396
▁generally	-9397
▁posterior	-9398
AI	-9399
hern	-9400
rang	-9401
▁1000	-9402
▁ligh	-9403
▁zoon	-9404
▁constatée	-9405
▁principalement	-9406
▁transformateur	-9407
▁"(	-9408
rich	-9409
lines	-9410
estock	-9411
▁Statis	-9412
▁millim	-9413
▁Uruguay	-9414
▁obstacles	-9415
LY	-9416
PM	-9417
▁EM	-9418
arity	-9419
▁gros	-9420
▁mine	-9421
▁noter	-9422
▁shipp	-9423
▁[...]*	-9424
▁normalisation	-9425
rési	-9426
entré	-9427
▁issus	-9428
▁prêts	-9429
▁89/662/	-9430
▁partial	-9431
including	-9432
intention	-9433
▁internes	-9434
▁réalisée	-9435
▁harmonized	-9436
▁manufacturers	-9437
24/	-9438
79/	-9439
aleur	-9440
▁oliv	-9441
ishing	-9442
▁1996.	-9443
étiques	-9444
▁Suisse	-9445
▁clarté	-9446
▁covers	-9447
▁reform	-9448
▁session	-9449
▁skimmed	-9450
▁Certific	-9451
▁concentré	-9452
▁entraîner	-9453
▁trimestre	-9454
▁Development	-9455
▁distinction	-9456
▁Nr	-9457
acier	-9458
▁bonnes	-9459
▁dissem	-9460
▁néglig	-9461
▁écrémé	-9462
étiquette	-9463
▁avantage	-9464
▁ingrédients	-9465
échantillonnage	-9466
OND	-9467
▁REPUBL	-9468
▁checked	-9469
▁showing	-9470
▁différenci	-9471
▁processors	-9472
▁multilateral	-9473
▁stabilisation	-9474
bor	-9475
▁Tous	-9476
castle	-9477
▁Swiss	-9478
▁blanc	-9479
▁clause	-9480
▁inclus	-9481
▁contenir	-9482
▁premiums	-9483
▁influence	-9484
▁substantially	-9485
CB	-9486
oup	-9487
tait	-9488
▁CECA	-9489
▁seek	-9490
ettant	-9491
attente	-9492
▁Append	-9493
iliation	-9494
▁chargés	-9495
▁environ	-9496
▁conclude	-9497
▁Fisheries	-9498
▁remplissent	-9499
▁établissent	-9500
kg	-9501
»;	-9502
▁étendu	-9503
▁préserv	-9504
▁influenza	-9505
fur	-9506
unes	-9507
▁"3.	-9508
▁(30)	-9509
▁Organ	-9510
▁expéri	-9511
▁menées	-9512
▁papier	-9513
▁properly	-9514
▁restrict	-9515
▁précisant	-9516
▁7)	-9517
▁caf	-9518
▁banc	-9519
ournement	-9520
▁additive	-9521
▁Newcastle	-9522
▁exportateur	-9523
ctive	-9524
excède	-9525
▁plafond	-9526
▁exprimée	-9527
▁cessation	-9528
▁livraisons	-9529
▁1989,	-9530
▁grants	-9531
▁pourra	-9532
▁African	-9533
▁numéros	-9534
▁Ky	-9535
▁lié	-9536
illets	-9537
▁study	-9538
▁ACCORD	-9539
▁create	-9540
▁exerce	-9541
▁database	-9542
▁Represent	-9543
▁excluding	-9544
▁promoting	-9545
▁stipulated	-9546
▁justification	-9547
675/	-9548
▁PAS	-9549
00/92	-9550
ailand	-9551
itesse	-9552
▁flying	-9553
▁importé	-9554
▁complies	-9555
▁recevoir	-9556
pe	-9557
cap	-9558
ATED	-9559
▁(14	-9560
▁Bal	-9561
▁buy	-9562
▁views	-9563
▁arguments	-9564
▁settlement	-9565
homologation	-9566
▁obligatoires	-9567
▁peu	-9568
exerc	-9569
▁réform	-9570
▁groupements	-9571
▁propagating	-9572
▁5000	-9573
▁allo	-9574
gments	-9575
▁+++++	-9576
▁tranche	-9577
▁machines	-9578
▁notifient	-9579
▁coefficients	-9580
infrastructure	-9581
immatriculation	-9582
▁sets	-9583
▁récipro	-9584
▁cultural	-9585
▁reconnus	-9586
▁harvested	-9587
▁supprimés	-9588
RL	-9589
▁43,	-9590
▁psy	-9591
▁chau	-9592
▁grade	-9593
▁Should	-9594
▁90/642/	-9595
▁dérivés	-9596
▁imposées	-9597
▁indispensable	-9598
ilers	-9599
▁Medic	-9600
▁advice	-9601
▁dessin	-9602
▁clarity	-9603
▁vitesse	-9604
▁dangereux	-9605
EOG	-9606
▁VE	-9607
▁130	-9608
istes	-9609
▁magn	-9610
▁indirectly	-9611
▁irregularities	-9612
umé	-9613
itim	-9614
▁bri	-9615
▁bioc	-9616
▁chez	-9617
▁actif	-9618
employed	-9619
▁locales	-9620
▁versement	-9621
▁équivalente	-9622
▁110	-9623
ubles	-9624
▁zoot	-9625
▁never	-9626
▁compéti	-9627
▁composed	-9628
▁accessoires	-9629
TIV	-9630
âce	-9631
▁Emp	-9632
▁unf	-9633
▁2008	-9634
▁dette	-9635
oglucose	-9636
▁intermédiaires	-9637
ede	-9638
mbH	-9639
ney	-9640
▁foods	-9641
▁gradu	-9642
▁provo	-9643
▁89/391/	-9644
▁clauses	-9645
▁titulaires	-9646
erb	-9647
ître	-9648
▁UNE	-9649
▁aphteuse	-9650
▁nomination	-9651
▁Rev	-9652
▁hyb	-9653
▁1251	-9654
▁noms	-9655
liance	-9656
▁1993.	-9657
▁indem	-9658
èvement	-9659
▁compléter	-9660
▁(8),	-9661
▁hist	-9662
▁fraud	-9663
▁finale	-9664
▁publié	-9665
Eurostat	-9666
▁embryos	-9667
▁pressure	-9668
▁tribunal	-9669
▁franchise	-9670
▁beneficiaries	-9671
▁bag	-9672
aïwan	-9673
▁GmbH	-9674
▁principales	-9675
lique	-9676
▁mens	-9677
▁petits	-9678
▁situés	-9679
▁Thailand	-9680
▁latitude	-9681
▁mollusques	-9682
▁redevances	-9683
▁industrielle	-9684
/2004,	-9685
▁sulph	-9686
▁Interim	-9687
entretien	-9688
▁déclarées	-9689
▁enregistré	-9690
▁renforcement	-9691
▁transmettent	-9692
ör	-9693
hyd	-9694
rité	-9695
▁DEM	-9696
IDENT	-9697
section	-9698
▁powder	-9699
▁succes	-9700
▁abrogée	-9701
▁battant	-9702
▁engaged	-9703
enseignement	-9704
▁constatation	-9705
FR	-9706
ÉN	-9707
mat	-9708
▁dépar	-9709
▁unité	-9710
▁contrôl	-9711
▁factory	-9712
▁deterior	-9713
▁pression	-9714
▁reciproc	-9715
▁verified	-9716
▁temporarily	-9717
96	-9718
union	-9719
▁assurant	-9720
▁distribut	-9721
DE	-9722
▁SCE	-9723
▁VAT	-9724
ATING	-9725
▁1966	-9726
emment	-9727
▁ETATS	-9728
▁dissu	-9729
▁retain	-9730
▁seuils	-9731
▁dispens	-9732
▁earlier	-9733
▁pattern	-9734
▁fabricants	-9735
▁compensatory	-9736
OV	-9737
iens	-9738
sifs	-9739
exten	-9740
▁ECSC	-9741
▁PAYS	-9742
▁retro	-9743
▁aviaire	-9744
▁houblon	-9745
▁polyest	-9746
▁chargées	-9747
▁délivrer	-9748
▁Switzerland	-9749
1/85	-9750
ulés	-9751
eable	-9752
impact	-9753
▁domic	-9754
▁Aucune	-9755
▁states	-9756
▁deficit	-9757
▁subsidiary	-9758
nant	-9759
▁Aid	-9760
▁REPUBLIC	-9761
▁although	-9762
▁destinations	-9763
▁τ	-9764
ILE	-9765
▁cot	-9766
rivée	-9767
▁seuls	-9768
▁Taïwan	-9769
▁notion	-9770
▁organic	-9771
▁français	-9772
▁subsidies	-9773
▁autorisent	-9774
';	-9775
Reg	-9776
▁Ab	-9777
addi	-9778
ardi	-9779
72/95	-9780
anish	-9781
oints	-9782
▁tuber	-9783
ectives	-9784
▁appell	-9785
▁obliged	-9786
▁children	-9787
▁stations	-9788
ÉD	-9789
STR	-9790
esp	-9791
aily	-9792
▁(31)	-9793
▁chef	-9794
▁dedu	-9795
▁suisse	-9796
▁échange	-9797
▁formulaires	-9798
▁provisionally	-9799
(9)	-9800
▁AV	-9801
▁90,	-9802
metic	-9803
▁ETRE	-9804
▁const	-9805
▁prélev	-9806
▁monetary	-9807
▁priorité	-9808
ico	-9809
lom	-9810
née	-9811
ype	-9812
▁sl	-9813
▁mesh	-9814
lative	-9815
▁huiles	-9816
▁notifiée	-9817
▁préjudici	-9818
▁essentiels	-9819
CTION	-9820
▁(3);	-9821
▁1973	-9822
▁coup	-9823
▁print	-9824
▁outbre	-9825
entrepôt	-9826
intérêts	-9827
itations	-9828
▁succurs	-9829
▁mentionné	-9830
▁réguliers	-9831
▁sensiblement	-9832
56/	-9833
cin	-9834
▁bu	-9835
▁ov	-9836
▁MES	-9837
▁hoc	-9838
▁pip	-9839
onési	-9840
illage	-9841
▁GENER	-9842
▁borne	-9843
obstant	-9844
▁Export	-9845
▁maritimes	-9846
▁individuals	-9847
Her	-9848
▁XV	-9849
▁141	-9850
▁27.	-9851
▁AGR	-9852
izing	-9853
making	-9854
▁stamp	-9855
▁élevés	-9856
▁définit	-9857
onciation	-9858
▁Portugues	-9859
▁mechanisms	-9860
ôte	-9861
▁wheat	-9862
▁funding	-9863
▁relates	-9864
▁argument	-9865
▁measurement	-9866
▁exceptionnelles	-9867
BR	-9868
▁iv	-9869
▁93/19	-9870
▁absol	-9871
▁color	-9872
▁grâce	-9873
▁partly	-9874
oundation	-9875
▁employer	-9876
▁afférentes	-9877
▁protocoles	-9878
▁consolidated	-9879
▁Data	-9880
▁becom	-9881
▁gained	-9882
▁situées	-9883
▁selection	-9884
pour	-9885
▁Tun	-9886
▁pot	-9887
▁COMITÉ	-9888
▁attain	-9889
▁Statute	-9890
▁dommages	-9891
▁effectifs	-9892
▁posteriori	-9893
▁correspondance	-9894
▁28.	-9895
▁Pré	-9896
rehen	-9897
▁SPEC	-9898
isters	-9899
▁Russia	-9900
▁salariés	-9901
▁livestock	-9902
▁Foundation	-9903
▁conception	-9904
▁traitements	-9905
ção	-9906
▁PROP	-9907
▁attach	-9908
▁Croatia	-9909
▁constitué	-9910
▁justifier	-9911
▁Portuguese	-9912
PI	-9913
▁98,	-9914
▁wid	-9915
▁espagn	-9916
▁living	-9917
▁adapting	-9918
▁végétales	-9919
▁infrastructures	-9920
`.	-9921
TIN	-9922
▁und	-9923
month	-9924
▁ANIM	-9925
respect	-9926
▁discus	-9927
▁sperme	-9928
▁voting	-9929
PUBLIQUE	-9930
products	-9931
▁Framework	-9932
▁suffisant	-9933
▁fournitures	-9934
ij	-9935
(9),	-9936
▁Mod	-9937
▁fif	-9938
▁masse	-9939
▁spong	-9940
influenza	-9941
▁molluscs	-9942
▁hazardous	-9943
▁développer	-9944
▁indirectement	-9945
TRE	-9946
▁Mr	-9947
▁Amend	-9948
▁repos	-9949
▁imparti	-9950
▁inclure	-9951
▁ouvrable	-9952
▁fermeture	-9953
▁=	-9954
▁150	-9955
neaux	-9956
▁Table	-9957
▁Spanish	-9958
▁conduit	-9959
▁RÉPUBLIQUE	-9960
BS	-9961
NFL	-9962
uch	-9963
pers	-9964
▁2309	-9965
▁[4],	-9966
▁coast	-9967
Uruguay	-9968
▁assemb	-9969
▁publie	-9970
▁amélior	-9971
▁decrease	-9972
▁transbord	-9973
▁communiqués	-9974
▁mg	-9975
hand	-9976
▁0,5	-9977
▁PIB	-9978
▁RTP	-9979
▁804/68	-9980
▁64/433/	-9981
▁legitim	-9982
▁indiquer	-9983
▁probable	-9984
▁terminal	-9985
▁scheduled	-9986
▁undergone	-9987
▁spongiform	-9988
▁déterminant	-9989
▁individuelle	-9990
▁reimbursement	-9991
ht	-9992
wer	-9993
▁2;	-9994
5/68	-9995
▁allég	-9996
▁optim	-9997
▁Imports	-9998
▁hygiene	-9999
▁dimensions	-10000
échantillons	-10001
vere	-10002
issue	-10003
▁complet	-10004
▁example	-10005
▁margins	-10006
▁station	-10007
▁différente	-10008
resp	-10009
▁(32)	-10010
▁(33)	-10011
▁BNFL	-10012
▁speed	-10013
▁occurred	-10014
fon	-10015
ifie	-10016
▁aura	-10017
▁revêt	-10018
▁regroup	-10019
▁importants	-10020
▁authorising	-10021
▁perspectives	-10022
GAN	-10023
▁"1	-10024
▁Pl	-10025
EOGA	-10026
tise	-10027
▁1702	-10028
▁bases	-10029
▁coule	-10030
▁passage	-10031
▁française	-10032
▁calendrier	-10033
dam	-10034
▁TVA	-10035
mêmes	-10036
abling	-10037
▁breve	-10038
▁lines	-10039
▁marks	-10040
▁Russian	-10041
▁examens	-10042
▁pourront	-10043
▁successful	-10044
III	-10045
▁[7	-10046
(10)	-10047
ONOM	-10048
▁37,	-10049
▁band	-10050
▁daily	-10051
▁estimates	-10052
64/	-10053
amb	-10054
has	-10055
▁spp	-10056
États	-10057
▁1974	-10058
▁Thaï	-10059
▁mass	-10060
▁Autres	-10061
▁nucléaire	-10062
▁domestiques	-10063
ote	-10064
▁1:	-10065
aill	-10066
most	-10067
▁120	-10068
▁eco	-10069
▁1988,	-10070
▁avian	-10071
▁toler	-10072
▁agréée	-10073
▁consac	-10074
▁compatibilité	-10075
27/	-10076
lers	-10077
▁dup	-10078
▁conç	-10079
▁combat	-10080
▁string	-10081
▁Thaïlande	-10082
▁ultérieurement	-10083
▁jo	-10084
atus	-10085
extra	-10086
▁paper	-10087
▁marges	-10088
▁aérienne	-10089
▁approuvés	-10090
▁pharmaceu	-10091
▁réductions	-10092
▁recouvrement	-10093
ito	-10094
ocu	-10095
▁CES	-10096
/2000.	-10097
▁proté	-10098
▁PARTIC	-10099
▁longue	-10100
▁repair	-10101
▁inscrits	-10102
70/	-10103
ints	-10104
▁Sea	-10105
uffis	-10106
▁surv	-10107
▁Japon	-10108
▁Croatie	-10109
▁Indones	-10110
▁moyennes	-10111
▁comprehen	-10112
▁temporaires	-10113
.198	-10114
/94,	-10115
icul	-10116
▁1994.	-10117
Ukraine	-10118
itement	-10119
▁fiscale	-10120
▁loading	-10121
▁31.	-10122
▁EXP	-10123
UTION	-10124
tably	-10125
équidés	-10126
▁mainly	-10127
▁inscrites	-10128
▁transmettre	-10129
iven	-10130
▁lieux	-10131
▁money	-10132
▁Bureau	-10133
▁events	-10134
▁apportée	-10135
▁diverses	-10136
▁suspendu	-10137
▁communiqué	-10138
▁Applications	-10139
▁consentement	-10140
▁progressivement	-10141
weg	-10142
▁erre	-10143
▁diver	-10144
abroger	-10145
▁farming	-10146
▁enabling	-10147
▁semaines	-10148
▁soixante	-10149
▁frequency	-10150
Ar	-10151
OSE	-10152
iver	-10153
offres	-10154
▁trend	-10155
▁neither	-10156
▁prenant	-10157
▁Brussels	-10158
▁judgment	-10159
▁nuisibles	-10160
▁supprimer	-10161
▁contrepartie	-10162
/97,	-10163
conn	-10164
omen	-10165
▁404	-10166
▁Pri	-10167
accep	-10168
dient	-10169
▁flux	-10170
nements	-10171
▁portug	-10172
▁systém	-10173
▁tarifs	-10174
▁Measures	-10175
ky	-10176
fix	-10177
ocational	-10178
▁exchanges	-10179
uri	-10180
▁VAL	-10181
▁heat	-10182
frique	-10183
▁courts	-10184
▁attestant	-10185
▁enregistrée	-10186
▁legislative	-10187
OY	-10188
21/	-10189
▁24.	-10190
▁fle	-10191
▁flav	-10192
▁Given	-10193
▁minor	-10194
▁underc	-10195
▁invoice	-10196
▁society	-10197
▁Ministry	-10198
▁immatric	-10199
▁efficaces	-10200
▁principale	-10201
ICE	-10202
▁Ne	-10203
▁alter	-10204
▁95/46/	-10205
▁IMPORT	-10206
▁Europol	-10207
▁branches	-10208
▁exempted	-10209
▁changements	-10210
▁importateur	-10211
put	-10212
ancy	-10213
exon	-10214
▁Col	-10215
▁Eng	-10216
▁foy	-10217
▁pan	-10218
▁dédu	-10219
▁reve	-10220
▁1408/	-10221
▁Stand	-10222
▁arise	-10223
▁sollic	-10224
▁monthly	-10225
▁assurent	-10226
▁contacts	-10227
▁rubrique	-10228
allocation	-10229
▁compagnie	-10230
▁suspendre	-10231
▁transfers	-10232
▁transferts	-10233
▁compensateurs	-10234
▁22.	-10235
▁PREM	-10236
▁dens	-10237
▁(2005	-10238
▁injurious	-10239
▁tendering	-10240
▁slaughtered	-10241
▁satisfaisant	-10242
▁substitution	-10243
hav	-10244
▁EF	-10245
éric	-10246
▁aqu	-10247
▁étrang	-10248
▁90/675/	-10249
▁engines	-10250
▁vegetable	-10251
▁verifying	-10252
▁préjudiciable	-10253
▁professionnels	-10254
.';	-10255
ètre	-10256
▁(15	-10257
▁MIX	-10258
▁soup	-10259
untary	-10260
▁décla	-10261
▁reply	-10262
▁connex	-10263
▁conflic	-10264
▁exprimé	-10265
▁mandate	-10266
ederation	-10267
▁économie	-10268
respective	-10269
▁mentionnée	-10270
▁preliminary	-10271
▁conditionnement	-10272
eli	-10273
▁"-	-10274
andu	-10275
uler	-10276
▁Per	-10277
ordin	-10278
▁ling	-10279
urants	-10280
▁384/96	-10281
▁communs	-10282
▁continuous	-10283
▁countervailing	-10284
Le	-10285
ash	-10286
▁%)	-10287
ender	-10288
▁Pers	-10289
aliers	-10290
▁olives	-10291
▁pollut	-10292
▁Mesures	-10293
▁semaine	-10294
▁récipient	-10295
PT	-10296
ûts	-10297
▁04	-10298
alle	-10299
urés	-10300
▁Inde	-10301
uilles	-10302
▁psych	-10303
▁statue	-10304
▁agréées	-10305
▁produite	-10306
achèvement	-10307
▁réglementaire	-10308
▁35,	-10309
▁dry	-10310
entine	-10311
ependant	-10312
poration	-10313
▁remplit	-10314
▁infringements	-10315
ests	-10316
▁133	-10317
▁BGB	-10318
▁OCT	-10319
▁atm	-10320
▁sci	-10321
▁(34)	-10322
▁milieu	-10323
▁facture	-10324
exploitant	-10325
ato	-10326
▁exter	-10327
▁adressée	-10328
▁certaine	-10329
▁improved	-10330
▁Conclusion	-10331
▁advertising	-10332
CIAL	-10333
ract	-10334
tens	-10335
▁fixes	-10336
process	-10337
▁hectol	-10338
▁76/768/	-10339
▁arrival	-10340
▁immobil	-10341
▁notably	-10342
▁affectés	-10343
▁dépassant	-10344
▁statements	-10345
▁Definitions	-10346
▁représentent	-10347
LR	-10348
▁109	-10349
▁Lic	-10350
entité	-10351
environ	-10352
étendre	-10353
▁regime	-10354
▁element	-10355
▁pursuit	-10356
▁clinical	-10357
exemplaire	-10358
▁Cependant	-10359
▁preserved	-10360
▁Confederation	-10361
▁TA	-10362
▁Braz	-10363
existe	-10364
usions	-10365
▁valor	-10366
▁trouve	-10367
▁2201/96	-10368
▁comment	-10369
▁attribué	-10370
▁assurances	-10371
▁subdivisions	-10372
ason	-10373
iais	-10374
▁Cap	-10375
▁MAY	-10376
▁mac	-10377
atched	-10378
▁fiche	-10379
▁oppos	-10380
▁lesdits	-10381
▁combustion	-10382
▁legitimate	-10383
▁Confédération	-10384
ISH	-10385
ris	-10386
▁78/66	-10387
▁aggreg	-10388
▁privil	-10389
▁confirmé	-10390
▁cinquième	-10391
▁requiring	-10392
▁PARAGRAPHE	-10393
▁prélèvements	-10394
▁irrégularités	-10395
used	-10396
▁vit	-10397
▁2(1)	-10398
▁solde	-10399
▁Invest	-10400
▁initiate	-10401
▁admissible	-10402
▁inférieurs	-10403
▁consequence	-10404
ade	-10405
orthern	-10406
▁signal	-10407
▁déficit	-10408
expression	-10409
▁prévision	-10410
▁appartient	-10411
▁fondamentaux	-10412
▁°	-10413
MAN	-10414
RIT	-10415
▁201	-10416
▁Lim	-10417
envoi	-10418
▁bill	-10419
▁past	-10420
/2001.	-10421
▁budgétaires	-10422
▁pondération	-10423
▁traditionnels	-10424
VEN	-10425
▁MA	-10426
ovine	-10427
▁oise	-10428
▁stra	-10429
ureaux	-10430
▁World	-10431
▁signer	-10432
iterranéen	-10433
▁cultivation	-10434
▁technologie	-10435
▁renouvellement	-10436
AMLR	-10437
▁34,	-10438
▁Sal	-10439
▁gib	-10440
▁100000	-10441
▁détéri	-10442
▁permits	-10443
▁réduite	-10444
▁déterminent	-10445
ened	-10446
▁Esp	-10447
ricul	-10448
▁crop	-10449
▁spéc	-10450
▁Kyoto	-10451
▁Maroc	-10452
▁prove	-10453
exercer	-10454
▁détenus	-10455
▁retirer	-10456
▁stating	-10457
▁spéciaux	-10458
▁buildings	-10459
▁stringent	-10460
▁perception	-10461
▁semi	-10462
annual	-10463
éventu	-10464
▁fluct	-10465
▁fondé	-10466
▁pursue	-10467
oulement	-10468
▁ceiling	-10469
▁fondées	-10470
▁autrement	-10471
▁variations	-10472
Ind	-10473
med	-10474
▁Or	-10475
▁pi	-10476
indi	-10477
▁Dem	-10478
▁sugg	-10479
▁instances	-10480
▁séparément	-10481
▁Définitions	-10482
▁appellations	-10483
▁correspondante	-10484
OUN	-10485
Herz	-10486
ylum	-10487
asile	-10488
▁team	-10489
▁orders	-10490
▁packing	-10491
▁parvenir	-10492
▁voyageurs	-10493
▁naturelles	-10494
vin	-10495
emps	-10496
izoo	-10497
2005,	-10498
▁aims	-10499
isable	-10500
▁animales	-10501
▁partners	-10502
▁désignées	-10503
▁forestiers	-10504
▁programmation	-10505
LS	-10506
sub	-10507
/93/	-10508
▁unlo	-10509
animal	-10510
▁store	-10511
égovine	-10512
▁entries	-10513
▁demandés	-10514
▁tracteurs	-10515
▁correction	-10516
▁Application	-10517
▁One	-10518
chant	-10519
sident	-10520
lamento	-10521
▁salmon	-10522
▁chargée	-10523
▁exporté	-10524
▁opérant	-10525
▁resident	-10526
▁starting	-10527
▁Provision	-10528
▁entitlements	-10529
▁opérationnel	-10530
▁essentiellement	-10531
ds	-10532
law	-10533
vég	-10534
▁1;	-10535
▁cam	-10536
isson	-10537
▁(5);	-10538
▁Isra	-10539
ercial	-10540
▁biais	-10541
évaluer	-10542
▁(2004/	-10543
▁Bosnie	-10544
▁unable	-10545
▁66/401/	-10546
▁déclaré	-10547
▁évaluer	-10548
▁dépassent	-10549
once	-10550
▁103,	-10551
orocco	-10552
▁2092/91	-10553
▁inventory	-10554
▁terminated	-10555
itect	-10556
▁juge	-10557
▁link	-10558
▁ORGAN	-10559
▁cereal	-10560
▁devait	-10561
▁grains	-10562
▁totales	-10563
▁customer	-10564
▁exportées	-10565
▁remplacées	-10566
ués	-10567
itant	-10568
▁PREV	-10569
▁dues	-10570
▁75/44	-10571
▁roues	-10572
éditeur	-10573
▁recovered	-10574
▁comprising	-10575
▁objections	-10576
EP	-10577
▁999	-10578
▁rét	-10579
▁house	-10580
▁gibier	-10581
▁supplé	-10582
vironment	-10583
▁complété	-10584
▁actuelles	-10585
Herzégovine	-10586
▁Partnership	-10587
aa	-10588
rem	-10589
.199	-10590
stom	-10591
actif	-10592
▁race	-10593
▁pêches	-10594
▁raised	-10595
▁processor	-10596
▁équitable	-10597
▁mandataire	-10598
lois	-10599
▁dia	-10600
idité	-10601
▁tele	-10602
▁invite	-10603
tenstein	-10604
▁broadcas	-10605
▁couverte	-10606
▁diplômes	-10607
▁désignée	-10608
▁essentiel	-10609
appréciation	-10610
▁coordinated	-10611
FIC	-10612
enda	-10613
stance	-10614
▁Final	-10615
▁homog	-10616
engager	-10617
itoring	-10618
▁COUNTR	-10619
▁consécu	-10620
▁publiées	-10621
▁standing	-10622
▁financées	-10623
▁poursuite	-10624
▁suspected	-10625
▁considérer	-10626
(11	-10627
OUS	-10628
/90,	-10629
▁MIXTE	-10630
▁norvég	-10631
▁fédérale	-10632
▁bénéficié	-10633
▁détection	-10634
echtenstein	-10635
HOR	-10636
ovis	-10637
seas	-10638
liers	-10639
▁devra	-10640
loyment	-10641
▁charbon	-10642
▁listing	-10643
▁ferroviaire	-10644
▁Sa	-10645
tiliz	-10646
(2004)	-10647
contin	-10648
▁slova	-10649
▁worker	-10650
▁capture	-10651
▁achieving	-10652
▁indemnités	-10653
▁fundamental	-10654
nung	-10655
▁2847	-10656
▁MEAS	-10657
▁break	-10658
▁invalid	-10659
▁présidence	-10660
69/	-10661
INS	-10662
wide	-10663
▁MAT	-10664
▁eth	-10665
aches	-10666
▁game	-10667
▁jugé	-10668
inatory	-10669
▁versions	-10670
▁pratiqués	-10671
▁confirmées	-10672
▁françaises	-10673
▁commercialisés	-10674
▁74/	-10675
▁bot	-10676
avère	-10677
letin	-10678
oncer	-10679
▁neut	-10680
▁voies	-10681
▁weeks	-10682
▁grapes	-10683
▁wastes	-10684
métiques	-10685
▁traitées	-10686
▁constituant	-10687
inery	-10688
ipped	-10689
orandu	-10690
études	-10691
▁dispro	-10692
directive	-10693
▁intervals	-10694
▁puissance	-10695
▁territori	-10696
▁rapportant	-10697
ested	-10698
▁Champ	-10699
▁Steel	-10700
▁meets	-10701
▁detail	-10702
▁invoked	-10703
▁1257/1999	-10704
▁stability	-10705
▁mutuellement	-10706
▁disproportion	-10707
▁harmonization	-10708
.10	-10709
▁1006	-10710
▁fich	-10711
auteur	-10712
wegian	-10713
▁enjoy	-10714
▁pluri	-10715
▁asylum	-10716
▁86/362/	-10717
▁royaume	-10718
▁examiner	-10719
▁spiritue	-10720
▁whenever	-10721
▁remorques	-10722
▁maintaining	-10723
▁irrespective	-10724
ned	-10725
fies	-10726
tate	-10727
▁ang	-10728
affect	-10729
ataire	-10730
▁comparative	-10731
▁respectives	-10732
▁Liechtenstein	-10733
▁intermédiaire	-10734
▁confidentialité	-10735
▁AM	-10736
quat	-10737
▁228	-10738
▁83/	-10739
▁GMO	-10740
alier	-10741
reals	-10742
/2003.	-10743
▁79/11	-10744
▁CCAMLR	-10745
▁remédi	-10746
▁tempér	-10747
▁90/220/	-10748
▁purchas	-10749
▁recueil	-10750
▁sauvages	-10751
▁satisfies	-10752
ULT	-10753
▁[8	-10754
▁fal	-10755
IQUES	-10756
isible	-10757
▁synth	-10758
▁3719/88	-10759
▁agrément	-10760
▁operated	-10761
▁requérant	-10762
▁methodology	-10763
discriminatory	-10764
▁représentation	-10765
94	-10766
isc	-10767
▁CD	-10768
sives	-10769
▁passe	-10770
abilités	-10771
ondation	-10772
▁notifiés	-10773
▁servants	-10774
▁Norwegian	-10775
▁identical	-10776
échantillon	-10777
▁demandeurs	-10778
sia	-10779
TICLES	-10780
▁cotis	-10781
▁neglig	-10782
▁qualit	-10783
▁arrêter	-10784
▁created	-10785
▁formule	-10786
▁specimen	-10787
▁cosmétiques	-10788
NES	-10789
OUR	-10790
ción	-10791
éral	-10792
▁see	-10793
▁causé	-10794
▁infec	-10795
▁tolér	-10796
▁chemin	-10797
▁incomb	-10798
▁dischar	-10799
introduire	-10800
▁thresholds	-10801
▁automatique	-10802
▁recommended	-10803
▁'(	-10804
▁8)	-10805
rante	-10806
▁Mobil	-10807
▁occur	-10808
▁actuel	-10809
▁décharg	-10810
▁microdis	-10811
▁trailers	-10812
▁caractères	-10813
▁ack	-10814
▁quater	-10815
▁résidu	-10816
▁imposing	-10817
▁reconnue	-10818
▁constatés	-10819
▁satisfying	-10820
▁totalement	-10821
tr	-10822
IGIN	-10823
▁93/4	-10824
▁grat	-10825
▁coton	-10826
centages	-10827
▁managed	-10828
▁travers	-10829
▁estimate	-10830
▁déduction	-10831
▁Accordingly	-10832
▁classifiées	-10833
▁administratifs	-10834
TABL	-10835
hydro	-10836
▁(35)	-10837
gentine	-10838
ocratic	-10839
▁oiseaux	-10840
▁slovaque	-10841
▁conférées	-10842
▁viabilité	-10843
▁apparaître	-10844
▁respectent	-10845
▁correspondent	-10846
44	-10847
LAND	-10848
quar	-10849
vina	-10850
▁citoy	-10851
▁innov	-10852
▁serve	-10853
▁située	-10854
éléments	-10855
▁lodging	-10856
▁attestations	-10857
▁publications	-10858
▁adjudicateurs	-10859
▁RB	-10860
prof	-10861
▁Law	-10862
itent	-10863
▁histor	-10864
▁marins	-10865
▁people	-10866
▁90/424/	-10867
▁2000/29/	-10868
▁Guidance	-10869
▁admitted	-10870
▁pluriann	-10871
▁respecte	-10872
exonération	-10873
▁biological	-10874
▁committees	-10875
▁specifying	-10876
▁comprehensive	-10877
UNE	-10878
tée	-10879
239/	-10880
8/97	-10881
code	-10882
actifs	-10883
▁cease	-10884
▁inten	-10885
▁buying	-10886
▁sought	-10887
original	-10888
▁graines	-10889
▁prepare	-10890
infection	-10891
▁acceptée	-10892
▁aromatis	-10893
▁diplomas	-10894
▁fraction	-10895
▁autonomous	-10896
2),	-10897
▁Po	-10898
uche	-10899
▁gam	-10900
▁bloc	-10901
▁citi	-10902
▁drug	-10903
▁saisi	-10904
▁cotton	-10905
▁flavour	-10906
▁holders	-10907
▁periodic	-10908
▁voluntary	-10909
▁Monitoring	-10910
dor	-10911
rum	-10912
(7).	-10913
▁Recomm	-10914
▁justify	-10915
▁motivée	-10916
▁néanmoins	-10917
▁33,	-10918
▁APPR	-10919
▁cold	-10920
atching	-10921
orandum	-10922
ériques	-10923
▁couleur	-10924
▁proposé	-10925
indemnité	-10926
▁feuilles	-10927
▁discontin	-10928
▁1782/2003,	-10929
▁strengthening	-10930
▁considerations	-10931
▁EL	-10932
ITIES	-10933
▁PTOM	-10934
▁inad	-10935
▁Tunis	-10936
agricul	-10937
▁factor	-10938
▁jointly	-10939
▁protégée	-10940
▁sociales	-10941
▁Medicinal	-10942
▁compatibility	-10943
▁représentatif	-10944
ket	-10945
▁101	-10946
▁payé	-10947
▁models	-10948
▁GENERAL	-10949
atteindre	-10950
▁affaires	-10951
▁approche	-10952
▁couvrant	-10953
▁tractors	-10954
▁approbation	-10955
▁proviennent	-10956
OMC	-10957
tir	-10958
▁Bi	-10959
▁bâ	-10960
ector	-10961
ugosla	-10962
▁clean	-10963
▁insolv	-10964
▁seules	-10965
ferences	-10966
▁accepté	-10967
▁leaving	-10968
▁forestry	-10969
▁1291/2000	-10970
▁notifiées	-10971
▁terminaux	-10972
▁certifying	-10973
▁contraires	-10974
▁prepar	-10975
▁Appendix	-10976
▁accordés	-10977
▁guidance	-10978
▁comprendre	-10979
▁priorities	-10980
▁industriels	-10981
iend	-10982
▁assor	-10983
▁fifth	-10984
▁rédig	-10985
▁allows	-10986
▁précis	-10987
▁Morocco	-10988
▁excéder	-10989
▁ARTICLES	-10990
▁plafonds	-10991
▁indicators	-10992
▁individuelles	-10993
▁technologique	-10994
dé	-10995
DING	-10996
graph	-10997
incin	-10998
/2002.	-10999
▁1975,	-11000
ickness	-11001
▁78/660/	-11002
▁Cereals	-11003
▁sectori	-11004
▁consorti	-11005
18	-11006
zo	-11007
ου	-11008
37/	-11009
PIC	-11010
▁26.	-11011
▁ASS	-11012
▁dig	-11013
▁revenu	-11014
▁fourrag	-11015
▁invited	-11016
▁MobilCom	-11017
▁contents	-11018
▁militaire	-11019
▁analytical	-11020
46	-11021
GET	-11022
▁71/	-11023
▁3(2)	-11024
elfare	-11025
▁handic	-11026
▁warrant	-11027
▁consigne	-11028
▁consiste	-11029
▁exposées	-11030
▁fiscales	-11031
▁trouvent	-11032
▁extending	-11033
▁Nonobstant	-11034
▁consolidation	-11035
▁subparagraphs	-11036
zego	-11037
▁vul	-11038
aucun	-11039
uting	-11040
▁victi	-11041
ataires	-11042
▁facility	-11043
▁objection	-11044
▁potentiel	-11045
▁enregistrées	-11046
▁x	-11047
ban	-11048
set	-11049
▁écoul	-11050
▁exists	-11051
▁inland	-11052
zegovina	-11053
▁billets	-11054
▁tomates	-11055
▁EDF	-11056
▁SER	-11057
▁3(1)	-11058
affecte	-11059
▁divulg	-11060
cotation	-11061
▁annually	-11062
▁hectares	-11063
financement	-11064
▁identifying	-11065
▁prestataire	-11066
97	-11067
BP	-11068
αρ	-11069
▁ISO	-11070
▁grav	-11071
ennant	-11072
▁1986,	-11073
▁32004	-11074
▁appelé	-11075
▁76/769/	-11076
▁obtenue	-11077
▁manifest	-11078
▁recourir	-11079
▁apparatus	-11080
IED	-11081
yed	-11082
aves	-11083
▁[5]	-11084
amend	-11085
▁Cela	-11086
▁merc	-11087
▁réelle	-11088
▁exerçant	-11089
▁catalogue	-11090
▁combination	-11091
▁consistency	-11092
73/	-11093
down	-11094
opie	-11095
roit	-11096
outes	-11097
▁(36)	-11098
▁0,01	-11099
▁mess	-11100
▁éman	-11101
▁deven	-11102
▁sixième	-11103
▁procédés	-11104
▁redevance	-11105
▁définitives	-11106
▁eligibility	-11107
▁populations	-11108
ισ	-11109
▁cif	-11110
▁dose	-11111
▁surven	-11112
▁catches	-11113
▁déposées	-11114
▁reciprocal	-11115
▁énergétique	-11116
ASS	-11117
pré	-11118
▁Es	-11119
antie	-11120
▁entrer	-11121
▁fertil	-11122
▁accuracy	-11123
ajustement	-11124
▁Fondation	-11125
▁corrected	-11126
▁opérateur	-11127
▁Environment	-11128
▁Mediterranean	-11129
IVES	-11130
stan	-11131
vela	-11132
▁boo	-11133
trans	-11134
atever	-11135
▁1408/71	-11136
▁3600/92	-11137
▁warehous	-11138
▁Du	-11139
ISTR	-11140
roître	-11141
▁2220/	-11142
▁Bosnia	-11143
▁devient	-11144
▁nominal	-11145
▁reprise	-11146
extension	-11147
obtention	-11148
▁empêcher	-11149
▁contribue	-11150
▁identiques	-11151
▁réglementé	-11152
▁distorsions	-11153
RED	-11154
toy	-11155
▁Te	-11156
▁25.	-11157
▁easi	-11158
appare	-11159
▁imprim	-11160
▁appréci	-11161
struction	-11162
▁consulté	-11163
▁strictes	-11164
▁renouvela	-11165
▁concession	-11166
▁judiciaires	-11167
carb	-11168
orem	-11169
ross	-11170
▁cow	-11171
▁fauss	-11172
▁forte	-11173
▁burden	-11174
▁estimé	-11175
▁precise	-11176
▁MEASURES	-11177
▁appearing	-11178
▁machinery	-11179
▁infraction	-11180
▁gouverneurs	-11181
▁amb	-11182
▁dég	-11183
oxyde	-11184
▁729/	-11185
▁temper	-11186
▁valorem	-11187
▁shipping	-11188
▁bénéficie	-11189
▁moyennant	-11190
lementation	-11191
rs	-11192
PUE	-11193
alie	-11194
avor	-11195
▁GÉN	-11196
▁2(2)	-11197
▁créé	-11198
▁74/15	-11199
▁distinc	-11200
▁quelcon	-11201
▁insuffis	-11202
▁meilleure	-11203
▁territorial	-11204
▁intermediate	-11205
▁responsabilités	-11206
ECH	-11207
▁EFF	-11208
effor	-11209
opéra	-11210
▁1(1)	-11211
▁[4].	-11212
▁load	-11213
▁pigmeat	-11214
approuver	-11215
▁Governing	-11216
▁depending	-11217
▁dispatched	-11218
▁nevertheless	-11219
▁occupational	-11220
entiel	-11221
▁GÉNÉR	-11222
▁élevée	-11223
▁ceilings	-11224
▁polluants	-11225
CO	-11226
lib	-11227
pay	-11228
milk	-11229
▁bois	-11230
▁TARIC	-11231
▁afore	-11232
▁AUTHOR	-11233
▁Declar	-11234
▁Indian	-11235
▁ORIGIN	-11236
▁grands	-11237
▁devront	-11238
▁Northern	-11239
▁availability	-11240
ODS	-11241
ofar	-11242
▁ask	-11243
▁vice	-11244
▁spect	-11245
crivent	-11246
▁issuer	-11247
▁créanci	-11248
▁exclude	-11249
▁sulphur	-11250
▁autorise	-11251
36/	-11252
▁38,	-11253
▁75/	-11254
elled	-11255
quets	-11256
▁MESURES	-11257
▁adapter	-11258
▁caprins	-11259
▁longueur	-11260
▁recording	-11261
▁uniformes	-11262
▁justificatives	-11263
ABL	-11264
▁(16	-11265
▁Insp	-11266
▁cher	-11267
▁MARCH	-11268
▁STATE	-11269
actitude	-11270
▁decides	-11271
▁entrepôt	-11272
▁returned	-11273
▁encourager	-11274
▁additionnels	-11275
▁réglementées	-11276
33/	-11277
rest	-11278
▁1501	-11279
▁left	-11280
▁early	-11281
▁ECONOM	-11282
▁assuré	-11283
▁adaptées	-11284
▁premiers	-11285
▁indiquent	-11286
équipements	-11287
▁favorables	-11288
▁subordonné	-11289
▁participent	-11290
▁aforementioned	-11291
oung	-11292
▁FAO	-11293
ANNEX	-11294
inage	-11295
▁indu	-11296
▁Indust	-11297
▁carbon	-11298
▁fitted	-11299
▁usages	-11300
▁75/442/	-11301
▁changed	-11302
▁ajustement	-11303
▁demonstrate	-11304
▁substantielle	-11305
ert	-11306
atox	-11307
▁MOD	-11308
▁enz	-11309
▁vac	-11310
▁(37)	-11311
▁insu	-11312
espace	-11313
▁death	-11314
▁syrup	-11315
▁afford	-11316
▁showed	-11317
▁trends	-11318
▁décrite	-11319
back	-11320
▁118	-11321
▁fla	-11322
tites	-11323
effort	-11324
▁expor	-11325
▁pourv	-11326
▁visas	-11327
▁exigent	-11328
▁expédiés	-11329
▁ordinary	-11330
▁exclusion	-11331
▁priorités	-11332
▁procèdent	-11333
▁supportés	-11334
▁constatées	-11335
▁subheading	-11336
▁concurrents	-11337
▁simultanément	-11338
43/	-11339
▁Né	-11340
▁cig	-11341
▁6(1)	-11342
▁Chap	-11343
▁chep	-11344
▁Round	-11345
▁délib	-11346
▁litres	-11347
▁offers	-11348
acheteur	-11349
▁affecté	-11350
▁facteur	-11351
▁integral	-11352
▁présentes	-11353
▁conciliation	-11354
▁garantissant	-11355
IST	-11356
▁87/	-11357
▁old	-11358
assemb	-11359
▁30000	-11360
▁Scope	-11361
▁abatt	-11362
▁solid	-11363
▁corrig	-11364
▁humain	-11365
▁recourse	-11366
▁reliable	-11367
▁prévisions	-11368
▁corresponds	-11369
▁périodiquement	-11370
MES	-11371
eds	-11372
542/	-11373
eful	-11374
▁2,5	-11375
▁OUT	-11376
▁cau	-11377
▁trop	-11378
▁posts	-11379
▁classe	-11380
▁tarder	-11381
▁underst	-11382
▁hatching	-11383
▁supported	-11384
ded	-11385
ugi	-11386
havi	-11387
idém	-11388
▁comes	-11389
▁COMPET	-11390
▁femmes	-11391
▁fixent	-11392
▁useful	-11393
▁exprimées	-11394
▁mandatory	-11395
▁organised	-11396
▁preventing	-11397
▁×	-11398
free	-11399
▁TIR	-11400
▁Aucun	-11401
▁crime	-11402
VENTION	-11403
▁APPLIC	-11404
▁locale	-11405
▁privés	-11406
▁66/402/	-11407
▁incombe	-11408
▁implique	-11409
▁managing	-11410
▁assessing	-11411
▁increases	-11412
▁harmonisée	-11413
▁intégrante	-11414
▁quelconque	-11415
▁conditional	-11416
▁évaluations	-11417
▁transformées	-11418
ORS	-11419
ión	-11420
ley	-11421
IERS	-11422
auté	-11423
inga	-11424
▁730	-11425
avour	-11426
occup	-11427
▁Objec	-11428
▁intends	-11429
▁informer	-11430
▁measured	-11431
▁bilatéraux	-11432
▁définissant	-11433
umer	-11434
▁39,	-11435
▁DEP	-11436
aking	-11437
▁attes	-11438
▁quick	-11439
haviour	-11440
▁103(1)	-11441
▁printed	-11442
éducation	-11443
▁culturel	-11444
▁remained	-11445
▁partielle	-11446
ana	-11447
atri	-11448
▁seem	-11449
▁cargo	-11450
ERATION	-11451
▁routes	-11452
▁Espagne	-11453
▁allocations	-11454
HIC	-11455
Les	-11456
▁SG	-11457
pite	-11458
▁REGARD	-11459
▁92/118/	-11460
▁building	-11461
▁entraîne	-11462
▁offences	-11463
▁vocational	-11464
▁ajustements	-11465
▁millimètres	-11466
▁insufficient	-11467
AE	-11468
▁́	-11469
see	-11470
from	-11471
idem	-11472
▁8(2)	-11473
▁finds	-11474
▁others	-11475
▁finished	-11476
▁performances	-11477
TEN	-11478
/98,	-11479
▁235	-11480
▁calls	-11481
▁exact	-11482
Afrique	-11483
national	-11484
▁UNDERTA	-11485
▁annuelles	-11486
▁operative	-11487
▁providers	-11488
▁referring	-11489
▁1493/1999,	-11490
CP	-11491
za	-11492
inéas	-11493
▁(38)	-11494
▁113,	-11495
comité	-11496
▁batch	-11497
▁illég	-11498
▁provider	-11499
agriculteur	-11500
▁préférences	-11501
▁undercutting	-11502
▁proportionate	-11503
osen	-11504
phone	-11505
▁flor	-11506
▁hops	-11507
▁porté	-11508
▁carnet	-11509
▁procès	-11510
▁alinéas	-11511
▁mélange	-11512
▁déclarée	-11513
▁evaluate	-11514
▁tubercul	-11515
▁adéquates	-11516
▁allemande	-11517
▁explained	-11518
▁exemplaire	-11519
▁safeguards	-11520
▁opérationnels	-11521
▁câ	-11522
▁NEC	-11523
▁dil	-11524
TIFIC	-11525
label	-11526
ounted	-11527
▁seven	-11528
▁usine	-11529
espèces	-11530
▁branch	-11531
▁becomes	-11532
▁minutes	-11533
▁classique	-11534
▁représentatives	-11535
74/	-11536
▁Ve	-11537
VING	-11538
lait	-11539
lete	-11540
▁Alb	-11541
▁WTO	-11542
▁sin	-11543
ajout	-11544
vable	-11545
▁(39)	-11546
▁neuf	-11547
▁REFER	-11548
▁VALUE	-11549
▁parce	-11550
ideline	-11551
finition	-11552
/2000(2),	-11553
▁cosmetic	-11554
▁behaviour	-11555
▁température	-11556
ros	-11557
▁thé	-11558
under	-11559
▁bâti	-11560
▁lamps	-11561
▁reçoit	-11562
▁vaccin	-11563
▁sauvage	-11564
▁bivalves	-11565
▁ouverture	-11566
▁simultane	-11567
▁insolvency	-11568
▁indicateurs	-11569
tle	-11570
tudi	-11571
▁rein	-11572
▁confir	-11573
ralement	-11574
▁highest	-11575
▁applique	-11576
▁whatever	-11577
▁interoper	-11578
En	-11579
Hz	-11580
▁2:	-11581
STIT	-11582
▁42,	-11583
20000	-11584
▁réel	-11585
▁Brazil	-11586
▁Canary	-11587
▁dépend	-11588
▁déposés	-11589
▁segment	-11590
ointement	-11591
▁longitude	-11592
▁variation	-11593
▁inspectors	-11594
▁PSF	-11595
▁mid	-11596
▁film	-11597
econom	-11598
tative	-11599
▁levies	-11600
olamento	-11601
▁91/496/	-11602
▁créance	-11603
▁incorre	-11604
▁railway	-11605
▁entrusted	-11606
▁demonstrated	-11607
OIS	-11608
▁IL	-11609
5/80	-11610
ilib	-11611
▁88,	-11612
▁Bar	-11613
ulfur	-11614
▁chal	-11615
cephal	-11616
encour	-11617
▁défavor	-11618
énagement	-11619
▁Chemical	-11620
▁UNDERTAKING	-11621
-2	-11622
▁CI	-11623
temps	-11624
▁1992.	-11625
▁absor	-11626
▁device	-11627
quarters	-11628
▁advances	-11629
▁accompany	-11630
▁envisagée	-11631
▁régionaux	-11632
▁accessibles	-11633
▁norvégienne	-11634
▁don	-11635
oeufs	-11636
écule	-11637
▁intr	-11638
▁Singa	-11639
▁expli	-11640
▁confin	-11641
▁vendeur	-11642
▁distingu	-11643
▁planting	-11644
équivalence	-11645
▁conjointement	-11646
▁mi	-11647
▁war	-11648
▁1985,	-11649
▁acier	-11650
arrivée	-11651
▁TERRIT	-11652
▁discre	-11653
▁merger	-11654
▁rester	-11655
▁deliber	-11656
▁requête	-11657
▁tonnage	-11658
▁effectue	-11659
▁soutenir	-11660
▁Indonesia	-11661
▁fréquence	-11662
▁utilisent	-11663
▁fulfilment	-11664
▁expressément	-11665
▁slaughterhouse	-11666
▁π	-11667
▁sid	-11668
ANCES	-11669
▁done	-11670
▁mère	-11671
▁illeg	-11672
▁bivalve	-11673
▁publiés	-11674
identifier	-11675
▁household	-11676
▁negotiated	-11677
▁pollutants	-11678
41	-11679
▁GN	-11680
▁lit	-11681
▁Qual	-11682
▁1968,	-11683
▁bateau	-11684
▁indési	-11685
▁retour	-11686
▁unanim	-11687
▁70/220/	-11688
▁caution	-11689
▁directs	-11690
▁audiovis	-11691
▁démontré	-11692
▁afférents	-11693
▁Herzegovina	-11694
▁extérieures	-11695
▁possibilities	-11696
IRE	-11697
ght	-11698
▁Wh	-11699
▁pâ	-11700
onte	-11701
ATIVE	-11702
embry	-11703
▁fell	-11704
▁tuna	-11705
▁promp	-11706
ulfuron	-11707
échelle	-11708
▁Compan	-11709
▁inward	-11710
▁stabil	-11711
▁73/239/	-11712
▁conserver	-11713
▁COMMUNAUTÉ	-11714
▁consortium	-11715
▁communiquée	-11716
▁systématique	-11717
▁transposition	-11718
▁"—	-11719
▁km	-11720
PTION	-11721
▁bulk	-11722
édoine	-11723
▁schém	-11724
▁engins	-11725
▁ability	-11726
▁mettant	-11727
nellement	-11728
équilibre	-11729
▁conduire	-11730
▁features	-11731
▁Macédoine	-11732
▁interdite	-11733
▁equivalence	-11734
▁définitivement	-11735
let	-11736
▁RPC	-11737
▁rig	-11738
ôture	-11739
ifique	-11740
▁DEFIN	-11741
▁soins	-11742
▁inspec	-11743
levision	-11744
▁exposés	-11745
▁growing	-11746
▁briquets	-11747
Commission	-11748
▁pertinent	-11749
▁compagnies	-11750
▁polyesters	-11751
▁dépositaire	-11752
▁definitively	-11753
▁précédemment	-11754
Ob	-11755
tead	-11756
zing	-11757
▁1,5	-11758
tivin	-11759
ueill	-11760
▁prép	-11761
▁Oblig	-11762
▁AUTRES	-11763
▁compor	-11764
▁epidem	-11765
▁tissus	-11766
▁Control	-11767
▁accorde	-11768
▁refused	-11769
▁vitivin	-11770
▁Canaries	-11771
▁viability	-11772
▁éventuels	-11773
▁traduction	-11774
▁transfronti	-11775
OT	-11776
yer	-11777
▁UK	-11778
▁(17	-11779
▁84/	-11780
alles	-11781
▁endor	-11782
▁horiz	-11783
▁noise	-11784
▁fluctu	-11785
▁minimis	-11786
▁émetteur	-11787
▁accomplies	-11788
▁discipline	-11789
▁prorogation	-11790
▁improvements	-11791
▁ressortissant	-11792
▁provisoirement	-11793
ILL	-11794
▁41,	-11795
oises	-11796
rogen	-11797
▁eight	-11798
▁stades	-11799
▁soulign	-11800
▁négative	-11801
▁initialement	-11802
▁commercialisées	-11803
▁MRL	-11804
▁ger	-11805
▁lack	-11806
cédure	-11807
▁menac	-11808
▁découp	-11809
▁adoptés	-11810
▁aéronef	-11811
▁donnant	-11812
▁déroger	-11813
▁finales	-11814
▁2001/18/	-11815
▁revision	-11816
▁ministère	-11817
▁nationalité	-11818
▁Categ	-11819
▁Green	-11820
▁(2002/	-11821
▁NECESS	-11822
▁relief	-11823
▁bureaux	-11824
▁captive	-11825
financing	-11826
▁aéroport	-11827
▁admissibles	-11828
▁spécifiquement	-11829
ero	-11830
hood	-11831
▁(40)	-11832
▁réfugi	-11833
▁2220/85	-11834
▁apporte	-11835
▁pouvait	-11836
▁handicap	-11837
▁meilleures	-11838
▁restreindre	-11839
▁compétitivité	-11840
▁questionnaires	-11841
▁transformateurs	-11842
ERV	-11843
DUPL	-11844
ôles	-11845
▁40,	-11846
▁Dep	-11847
(10),	-11848
▁0207	-11849
▁gard	-11850
▁next	-11851
8/1999	-11852
entraî	-11853
govern	-11854
idency	-11855
▁étiqu	-11856
ougosla	-11857
▁impôts	-11858
▁correcte	-11859
▁nécessite	-11860
▁compensating	-11861
▁raisonnablement	-11862
95	-11863
87/	-11864
gement	-11865
▁saisie	-11866
▁affixed	-11867
▁entrant	-11868
▁yougosla	-11869
▁attribuée	-11870
▁disclosed	-11871
▁reasonably	-11872
▁satisfaisante	-11873
ôme	-11874
/91,	-11875
▁Ref	-11876
▁EUPM	-11877
▁milli	-11878
ISATION	-11879
conform	-11880
▁améric	-11881
▁assume	-11882
▁artikel	-11883
compliance	-11884
▁dénommées	-11885
▁participe	-11886
opérabilité	-11887
▁propriétaire	-11888
39/	-11889
pôts	-11890
élig	-11891
▁Mex	-11892
▁rac	-11893
▁sell	-11894
▁éval	-11895
▁FINAL	-11896
étrique	-11897
▁Except	-11898
▁octroyé	-11899
▁Particip	-11900
▁attendant	-11901
▁complétée	-11902
▁repayment	-11903
▁yougoslave	-11904
▁investisseurs	-11905
▁considérations	-11906
ilst	-11907
heure	-11908
uperv	-11909
▁(9),	-11910
▁feux	-11911
▁goat	-11912
▁lois	-11913
assure	-11914
▁silic	-11915
▁cibles	-11916
▁insofar	-11917
▁keeping	-11918
▁envisage	-11919
exactitude	-11920
▁confirmée	-11921
▁corrections	-11922
▁orientation	-11923
▁départements	-11924
ami	-11925
ULES	-11926
▁00,	-11927
aired	-11928
rages	-11929
▁Kong	-11930
▁avancé	-11931
▁semble	-11932
▁COMPETENT	-11933
▁Recommend	-11934
▁volontaire	-11935
▁procurement	-11936
▁phytosanitaires	-11937
bly	-11938
hes	-11939
oms	-11940
buil	-11941
acity	-11942
ycles	-11943
▁(2);	-11944
titulé	-11945
▁incin	-11946
▁729/70	-11947
embryons	-11948
▁competit	-11949
▁variable	-11950
tissements	-11951
▁consignee	-11952
▁restrictive	-11953
huit	-11954
▁2010	-11955
▁Serb	-11956
▁1970,	-11957
▁rétro	-11958
▁Rights	-11959
▁farmed	-11960
▁annexée	-11961
▁bananas	-11962
▁dommage	-11963
▁grandes	-11964
▁linguis	-11965
atisation	-11966
▁remédier	-11967
▁ownership	-11968
▁requérante	-11969
▁preferences	-11970
ONN	-11971
▁366	-11972
otrop	-11973
résil	-11974
▁gives	-11975
▁hypoth	-11976
▁tirets	-11977
▁PARTIES	-11978
▁filiale	-11979
▁microbi	-11980
▁précisé	-11981
▁overseas	-11982
▁justifiée	-11983
▁COMMUNAUTE	-11984
▁confidentielles	-11985
31/	-11986
32/	-11987
▁blé	-11988
eries	-11989
gènes	-11990
water	-11991
▁6(2)	-11992
▁SUCH	-11993
▁dies	-11994
▁plut	-11995
assent	-11996
▁81/85	-11997
▁Brésil	-11998
▁drinks	-11999
▁highly	-12000
instrument	-12001
Ex	-12002
ooth	-12003
▁bic	-12004
ensus	-12005
▁Sche	-12006
▁20000	-12007
▁ascer	-12008
alestin	-12009
osystem	-12010
▁duplic	-12011
▁désoss	-12012
▁semest	-12013
▁frontier	-12014
▁classical	-12015
▁renewable	-12016
▁subjected	-12017
▁partnership	-12018
▁Representative	-12019
(11)	-12020
phal	-12021
▁key	-12022
▁Coal	-12023
▁LEUR	-12024
▁MPUE	-12025
engage	-12026
▁defer	-12027
▁achats	-12028
▁ordonn	-12029
▁vaccins	-12030
▁999/2001	-12031
▁PARTICUL	-12032
▁proportionality	-12033
MP	-12034
do	-12035
(12)	-12036
cribe	-12037
érurg	-12038
▁TOUT	-12039
posage	-12040
▁1976,	-12041
▁(2003/	-12042
▁update	-12043
▁clôture	-12044
▁versées	-12045
▁décharge	-12046
▁justifie	-12047
▁sidérurg	-12048
servatoire	-12049
▁Notification	-12050
CÉD	-12051
ENTS	-12052
osis	-12053
type	-12054
▁IND	-12055
ANDES	-12056
▁92/1	-12057
▁CELF	-12058
▁para	-12059
▁vary	-12060
▁domin	-12061
▁smooth	-12062
européen	-12063
▁running	-12064
▁retained	-12065
▁generation	-12066
▁prescrites	-12067
▁prolongation	-12068
':	-12069
MS	-12070
▁Rh	-12071
▁'1.	-12072
▁82/	-12073
atoes	-12074
onésie	-12075
▁Contr	-12076
▁Greek	-12077
aissent	-12078
orocarb	-12079
▁parall	-12080
▁insérés	-12081
▁systematic	-12082
▁efficacement	-12083
▁authorizations	-12084
CR	-12085
OLE	-12086
▁32,	-12087
▁POR	-12088
▁FILE	-12089
▁renv	-12090
(2003)	-12091
▁women	-12092
▁emploi	-12093
▁fécule	-12094
▁menace	-12095
▁protein	-12096
▁ratites	-12097
▁destined	-12098
▁planning	-12099
▁transmise	-12100
▁Employment	-12101
▁Statistical	-12102
▁récupération	-12103
ye	-12104
▁%;	-12105
▁9)	-12106
▁CP	-12107
▁cm	-12108
2.200	-12109
onnel	-12110
velle	-12111
édent	-12112
▁Docu	-12113
▁NCBs	-12114
▁oral	-12115
(2002)	-12116
▁Malay	-12117
▁HAVING	-12118
▁hearing	-12119
▁offence	-12120
▁calculés	-12121
▁pondérée	-12122
▁publient	-12123
▁solvency	-12124
▁transpos	-12125
▁consigned	-12126
/98/	-12127
cons	-12128
▁(19	-12129
outre	-12130
urées	-12131
▁gear	-12132
9/2001	-12133
ouvrir	-12134
opoints	-12135
version	-12136
▁Public	-12137
▁diverg	-12138
▁donnés	-12139
▁exhaus	-12140
▁grammes	-12141
▁réforme	-12142
▁auraient	-12143
▁container	-12144
▁douaniers	-12145
▁prioritaires	-12146
-00	-12147
hum	-12148
olo	-12149
▁Cl	-12150
▁36,	-12151
▁Exp	-12152
▁REP	-12153
anvre	-12154
▁chev	-12155
▁sond	-12156
▁mener	-12157
▁nomin	-12158
▁invité	-12159
▁livrés	-12160
▁frequent	-12161
▁informée	-12162
▁proposer	-12163
▁recalled	-12164
▁desquelles	-12165
▁Organization	-12166
▁implications	-12167
▁specification	-12168
rob	-12169
▁loy	-12170
▁pes	-12171
élarg	-12172
▁(41)	-12173
▁thon	-12174
monium	-12175
▁destro	-12176
▁nettoy	-12177
examiner	-12178
▁74/150/	-12179
▁Austral	-12180
▁adéquat	-12181
▁connexes	-12182
▁foreseen	-12183
▁conserves	-12184
▁effectuent	-12185
AV	-12186
uée	-12187
(8).	-12188
AGGF	-12189
atta	-12190
émet	-12191
▁Tex	-12192
▁know	-12193
▁nets	-12194
gentin	-12195
▁EAGGF	-12196
▁incen	-12197
▁moiti	-12198
▁chosen	-12199
▁presum	-12200
▁tissues	-12201
luorocarb	-12202
▁détaillée	-12203
▁achievement	-12204
▁annuellement	-12205
GM	-12206
ême	-12207
▁cah	-12208
▁rad	-12209
estim	-12210
▁1605	-12211
Member	-12212
ounced	-12213
▁Africa	-12214
▁relevé	-12215
▁PREMIER	-12216
▁Pendant	-12217
▁abattus	-12218
▁pursued	-12219
▁constituted	-12220
▁individually	-12221
▁relativement	-12222
▁deterioration	-12223
▁transmissibles	-12224
MIS	-12225
due	-12226
ANCH	-12227
méth	-12228
▁SOUS	-12229
terdam	-12230
▁litre	-12231
▁79/542/	-12232
▁possess	-12233
▁davantage	-12234
▁informatis	-12235
▁pertinente	-12236
▁fourragères	-12237
▁précédentes	-12238
indemnisation	-12239
▁shareholders	-12240
26/	-12241
TAR	-12242
373/	-12243
oser	-12244
recy	-12245
▁INF	-12246
▁sac	-12247
▁(42)	-12248
▁PART	-12249
▁décl	-12250
▁lour	-12251
atrice	-12252
▁attend	-12253
▁renewal	-12254
▁Icelandic	-12255
▁Néanmoins	-12256
▁diversité	-12257
▁extérieur	-12258
▁References	-12259
▁consistant	-12260
▁radioactive	-12261
▁exceptionnels	-12262
▁temporairement	-12263
dy	-12264
▁â	-12265
72/	-12266
87,	-12267
▁mou	-12268
eding	-12269
▁malt	-12270
▁many	-12271
▁null	-12272
▁index	-12273
▁young	-12274
▁97/78/	-12275
▁critère	-12276
▁lighters	-12277
▁Guideline	-12278
▁thermique	-12279
▁programming	-12280
▁échantillon	-12281
▁ô	-12282
meth	-12283
▁SOL	-12284
▁jute	-12285
▁néer	-12286
astern	-12287
▁2007.	-12288
▁Funds	-12289
▁craft	-12290
▁kilom	-12291
urances	-12292
▁auxili	-12293
▁chanvre	-12294
▁liberal	-12295
▁Internet	-12296
▁accepter	-12297
▁exprimés	-12298
▁Presidency	-12299
▁differenti	-12300
▁multiannual	-12301
GS	-12302
dou	-12303
avait	-12304
rates	-12305
▁vine	-12306
▁explan	-12307
▁chambre	-12308
▁infected	-12309
▁alcoholic	-12310
▁passation	-12311
▁précitées	-12312
▁statutaire	-12313
▁commentaires	-12314
GR	-12315
UF	-12316
bs	-12317
500	-12318
zens	-12319
habil	-12320
▁Stoc	-12321
▁fais	-12322
▁VEHIC	-12323
▁payée	-12324
▁jeunes	-12325
▁rather	-12326
▁2847/93	-12327
▁bananes	-12328
▁exercent	-12329
ario	-12330
ynam	-12331
▁achev	-12332
▁DESTIN	-12333
▁rempli	-12334
▁réfrig	-12335
▁courant	-12336
▁remains	-12337
▁réduits	-12338
▁conjoint	-12339
▁invoqués	-12340
▁qualités	-12341
▁islandaise	-12342
▁disturbance	-12343
▁Implementation	-12344
hr	-12345
88,	-12346
abs	-12347
▁mém	-12348
ental	-12349
▁PUBL	-12350
raphic	-12351
▁exclus	-12352
▁closely	-12353
▁legally	-12354
▁barriers	-12355
▁formelle	-12356
▁inscrite	-12357
▁spécific	-12358
▁Allemagne	-12359
▁augmenter	-12360
▁dependent	-12361
▁fourrages	-12362
▁stipulates	-12363
▁préférentiel	-12364
▁transeuropéen	-12365
interopérabilité	-12366
AB	-12367
51/	-12368
63/	-12369
rus	-12370
wed	-12371
tine	-12372
▁Pak	-12373
inder	-12374
▁VALE	-12375
▁fats	-12376
▁32005	-12377
▁cache	-12378
▁laiss	-12379
▁200000	-12380
▁INFORM	-12381
▁enters	-12382
▁fraude	-12383
▁objects	-12384
▁suspect	-12385
▁detection	-12386
▁commissions	-12387
▁débarquement	-12388
▁Communication	-12389
/95.	-12390
▁foc	-12391
notes	-12392
onses	-12393
▁(43)	-12394
▁4(3)	-12395
▁hemp	-12396
▁trees	-12397
élément	-12398
▁exercé	-12399
▁abattoir	-12400
▁régulier	-12401
▁existante	-12402
▁Production	-12403
governmental	-12404
▁comportement	-12405
▁prestataires	-12406
▁dissemination	-12407
IME	-12408
amid	-12409
oder	-12410
▁400	-12411
▁cut	-12412
fully	-12413
étude	-12414
▁step	-12415
.1977,	-12416
▁antib	-12417
▁Italie	-12418
▁86/363/	-12419
▁dessins	-12420
▁postéri	-12421
umulation	-12422
▁800/1999	-12423
▁Tribunal	-12424
▁disposed	-12425
▁construed	-12426
ofluorocarb	-12427
éligibilité	-12428
▁properties	-12429
▁amendements	-12430
▁solvabilité	-12431
)"	-12432
▁00'	-12433
▁NON	-12434
▁féc	-12435
▁heav	-12436
alling	-12437
▁falls	-12438
▁machine	-12439
▁ouverts	-12440
▁visible	-12441
▁précisées	-12442
ILS	-12443
cks	-12444
ANTS	-12445
▁195	-12446
▁CET	-12447
eters	-12448
idémi	-12449
▁(44)	-12450
▁1785	-12451
▁huit	-12452
▁surg	-12453
ealand	-12454
▁Maced	-12455
▁délim	-12456
▁prouv	-12457
idences	-12458
▁(2001/	-12459
▁always	-12460
▁moitié	-12461
▁radiod	-12462
▁sommes	-12463
▁engagée	-12464
▁leading	-12465
▁Pakistan	-12466
▁bulletin	-12467
▁emballage	-12468
observation	-12469
▁Investment	-12470
▁habilitées	-12471
▁recherches	-12472
▁temperature	-12473
ESA	-12474
▁beet	-12475
▁frig	-12476
▁raff	-12477
▁elect	-12478
tissent	-12479
▁déclarant	-12480
▁examining	-12481
▁justifient	-12482
▁inscription	-12483
▁examinations	-12484
▁GBP	-12485
▁Nou	-12486
▁seat	-12487
▁Zealand	-12488
▁renewed	-12489
▁évolution	-12490
▁appliances	-12491
▁consolidés	-12492
▁ecological	-12493
OMM	-12494
cée	-12495
mium	-12496
▁för	-12497
sized	-12498
▁2004/1	-12499
apporter	-12500
▁closing	-12501
▁distort	-12502
▁libérée	-12503
▁putting	-12504
▁retraite	-12505
▁comprises	-12506
▁interconn	-12507
▁parcelles	-12508
▁collateral	-12509
cale	-12510
▁Arr	-12511
▁Gro	-12512
andes	-12513
labor	-12514
▁grec	-12515
affaire	-12516
▁driver	-12517
▁méthod	-12518
▁arrêtée	-12519
▁indents	-12520
▁employés	-12521
▁eliminate	-12522
IEL	-12523
bes	-12524
▁ax	-12525
agas	-12526
iban	-12527
inty	-12528
uran	-12529
▁Rel	-12530
▁2400	-12531
▁médi	-12532
▁denom	-12533
▁salub	-12534
▁vitic	-12535
▁Israel	-12536
▁Statut	-12537
▁famili	-12538
▁montre	-12539
▁refuge	-12540
▁rejets	-12541
▁résumé	-12542
▁susvis	-12543
▁échang	-12544
approved	-12545
▁Albania	-12546
▁extract	-12547
▁neutral	-12548
▁refusal	-12549
▁informés	-12550
▁tendance	-12551
▁Macedonia	-12552
▁unloading	-12553
▁considerable	-12554
men	-12555
group	-12556
▁PROT	-12557
▁trace	-12558
▁MEMBRE	-12559
▁WITHIN	-12560
▁spécim	-12561
▁Process	-12562
▁citizens	-12563
▁moreover	-12564
▁1260/1999	-12565
▁combating	-12566
▁prescrivent	-12567
▁multilatérales	-12568
pes	-12569
▁1453	-12570
▁Requ	-12571
▁quit	-12572
herent	-12573
▁ACTIV	-12574
▁acted	-12575
▁fuels	-12576
lective	-12577
▁Alstom	-12578
▁cachet	-12579
▁phosph	-12580
accident	-12581
economic	-12582
▁traders	-12583
employeur	-12584
▁engagées	-12585
▁finances	-12586
▁interpre	-12587
▁concerted	-12588
▁Committees	-12589
▁Guidelines	-12590
▁television	-12591
▁contraignants	-12592
CESS	-12593
ICAL	-12594
airs	-12595
irré	-12596
pore	-12597
role	-12598
▁méta	-12599
ATIVES	-12600
tituer	-12601
▁aware	-12602
exigence	-12603
▁instead	-12604
▁Reglamento	-12605
▁intervient	-12606
▁CONSIDERANT	-12607
▁appointment	-12608
ël	-12609
/48/	-12610
▁dan	-12611
onome	-12612
upart	-12613
▁1520	-12614
▁ADMIN	-12615
▁PROCÉD	-12616
▁frigor	-12617
▁passif	-12618
▁rendue	-12619
▁tenues	-12620
▁plupart	-12621
▁tomatoes	-12622
▁carburant	-12623
▁salubrité	-12624
Observatoire	-12625
▁évé	-12626
▁4(2)	-12627
▁Only	-12628
▁passé	-12629
▁étudi	-12630
▁levied	-12631
▁citoyens	-12632
▁problème	-12633
▁Procédure	-12634
▁evaluated	-12635
▁précision	-12636
▁invitations	-12637
ADE	-12638
▁659	-12639
acide	-12640
right	-12641
tainty	-12642
▁retirés	-12643
▁receives	-12644
▁incorrect	-12645
▁indicates	-12646
IÈ	-12647
she	-12648
▁105	-12649
titut	-12650
▁5(1)	-12651
▁revo	-12652
▁2007,	-12653
▁forfe	-12654
▁TARGET	-12655
▁traiter	-12656
▁Malaysia	-12657
▁fittings	-12658
▁justifié	-12659
▁mélanges	-12660
▁approuvée	-12661
▁démontrer	-12662
▁supprimée	-12663
▁Provisions	-12664
▁convergence	-12665
▁estimations	-12666
▁Recommendation	-12667
ury	-12668
▁[9	-12669
▁rab	-12670
thing	-12671
quatre	-12672
▁1972,	-12673
▁40000	-12674
▁remove	-12675
agissant	-12676
▁journey	-12677
irrégular	-12678
utilisateur	-12679
▁conducteur	-12680
▁respectifs	-12681
▁elimination	-12682
▁substituted	-12683
▁01	-12684
OIRE	-12685
UTIL	-12686
▁job	-12687
odium	-12688
pping	-12689
▁asked	-12690
▁tradu	-12691
▁VALEUR	-12692
▁labels	-12693
▁lutter	-12694
▁moving	-12695
adrement	-12696
lections	-12697
▁passant	-12698
▁autonome	-12699
▁conviend	-12700
▁deducted	-12701
▁entraves	-12702
▁exercised	-12703
instauration	-12704
▁fluctuations	-12705
ANG	-12706
ama	-12707
▁bl	-12708
/100	-12709
▁Vol	-12710
usive	-12711
▁alph	-12712
▁ende	-12713
anging	-12714
endice	-12715
▁THEIR	-12716
▁sixth	-12717
▁surpl	-12718
▁causes	-12719
émetteur	-12720
▁blanchi	-12721
▁balances	-12722
▁officers	-12723
▁schedule	-12724
▁trouvant	-12725
IGN	-12726
lish	-12727
qual	-12728
ulée	-12729
lanti	-12730
▁15000	-12731
▁bande	-12732
▁precl	-12733
▁secured	-12734
▁trouver	-12735
▁voyages	-12736
mm	-12737
lent	-12738
▁(18	-12739
▁Sol	-12740
vingt	-12741
▁REQU	-12742
▁soft	-12743
enteur	-12744
verbal	-12745
▁1035/	-12746
▁Until	-12747
▁anony	-12748
▁révisé	-12749
▁acteurs	-12750
▁clarify	-12751
▁rendues	-12752
augmenter	-12753
▁furnished	-12754
▁irregularity	-12755
▁periodically	-12756
PS	-12757
ao	-12758
ORY	-12759
▁mot	-12760
▁0406	-12761
▁Conc	-12762
▁RESP	-12763
▁fire	-12764
▁Jusqu	-12765
▁flows	-12766
▁refin	-12767
▁tubes	-12768
▁préval	-12769
engagent	-12770
▁2400/96	-12771
▁English	-12772
▁104/2000	-12773
▁minimaux	-12774
▁précises	-12775
écoulement	-12776
▁Verordnung	-12777
▁combustible	-12778
▁nationality	-12779
▁transportés	-12780
▁SW	-12781
icip	-12782
▁10)	-12783
▁106	-12784
▁pad	-12785
rutin	-12786
▁(45)	-12787
▁Arab	-12788
icoles	-12789
▁AUTOR	-12790
étaient	-12791
▁doubts	-12792
▁postal	-12793
▁ration	-12794
▁refers	-12795
▁FINALES	-12796
▁creditors	-12797
▁incombent	-12798
▁continuent	-12799
▁progressively	-12800
case	-12801
iert	-12802
▁tim	-12803
latox	-12804
▁574/	-12805
▁zero	-12806
istent	-12807
▁align	-12808
▁sangu	-12809
▁endors	-12810
▁proche	-12811
▁pénale	-12812
▁suivie	-12813
▁PRESENTE	-12814
▁Specific	-12815
▁equipped	-12816
▁préjudic	-12817
▁associées	-12818
▁notifiant	-12819
▁générateur	-12820
▁préjudiciables	-12821
▁competitiveness	-12822
▁382	-12823
▁Eff	-12824
▁XIV	-12825
▁FABR	-12826
▁motif	-12827
▁chanti	-12828
▁prompt	-12829
▁urgent	-12830
▁disputes	-12831
▁continuing	-12832
▁understood	-12833
▁observation	-12834
▁productivité	-12835
▁prévisionnel	-12836
gage	-12837
rose	-12838
▁rear	-12839
▁semb	-12840
meubles	-12841
▁pureté	-12842
▁visite	-12843
▁présidé	-12844
▁secrecy	-12845
producing	-12846
▁réponses	-12847
▁attesting	-12848
▁attribués	-12849
entreposage	-12850
▁perturbation	-12851
vol	-12852
ISSE	-12853
best	-12854
▁PCB	-12855
▁[6]	-12856
tagne	-12857
▁1602	-12858
▁1774	-12859
▁aids	-12860
▁saur	-12861
▁wood	-12862
laires	-12863
▁denrée	-12864
▁illegal	-12865
▁options	-12866
▁salarié	-12867
▁filiales	-12868
▁limitées	-12869
▁éliminer	-12870
▁breakdown	-12871
▁clearance	-12872
▁frontiers	-12873
▁indirecte	-12874
▁incidences	-12875
▁membership	-12876
▁spécifiées	-12877
▁susmentionnées	-12878
▁discriminatoire	-12879
éó	-12880
usp	-12881
▁13(3)	-12882
▁grown	-12883
▁misle	-12884
▁Madrid	-12885
▁affirm	-12886
▁cheptel	-12887
▁apparent	-12888
▁détaillé	-12889
▁acceptées	-12890
▁expertise	-12891
▁measuring	-12892
▁intervenir	-12893
▁actionnaires	-12894
▁subsidiarité	-12895
▁valorisation	-12896
ago	-12897
ican	-12898
lary	-12899
ource	-12900
▁1452	-12901
▁exit	-12902
▁rien	-12903
inting	-12904
▁Offic	-12905
▁macro	-12906
▁dioxide	-12907
▁coopérer	-12908
▁quarante	-12909
▁végétale	-12910
▁coopèrent	-12911
▁respected	-12912
▁submitting	-12913
▁supérieures	-12914
▁subsidiarity	-12915
TF	-12916
▁ð	-12917
Alb	-12918
TES	-12919
hus	-12920
Coun	-12921
alys	-12922
▁"4.	-12923
▁DEL	-12924
▁art	-12925
▁fum	-12926
▁300,	-12927
▁drog	-12928
▁near	-12929
▁pric	-12930
▁troup	-12931
▁Struct	-12932
▁inclut	-12933
▁PRODUCT	-12934
▁despite	-12935
▁prorata	-12936
▁réputée	-12937
entendent	-12938
inclusion	-12939
▁Nouvelle	-12940
▁exigence	-12941
▁ADMINISTR	-12942
▁mouvement	-12943
▁consecutive	-12944
▁démocratique	-12945
▁informatique	-12946
5-	-12947
ya	-12948
ACH	-12949
OIT	-12950
OWN	-12951
▁Div	-12952
ilian	-12953
where	-12954
▁0,02	-12955
▁DATE	-12956
unanim	-12957
▁GOODS	-12958
Council	-12959
ictions	-12960
ulement	-12961
▁77/93/	-12962
▁erreur	-12963
▁slight	-12964
▁placées	-12965
iological	-12966
▁Category	-12967
▁executive	-12968
▁harmonisé	-12969
▁suffisants	-12970
HER	-12971
yle	-12972
▁NOR	-12973
▁bat	-12974
▁hon	-12975
▁nul	-12976
agine	-12977
▁orig	-12978
▁vois	-12979
ATIONAL	-12980
lantique	-12981
▁délivre	-12982
▁imposer	-12983
▁respond	-12984
▁undergo	-12985
unanimité	-12986
▁174/1999	-12987
▁2081/92,	-12988
▁deposited	-12989
▁résultent	-12990
▁paramètres	-12991
▁constructed	-12992
▁conviennent	-12993
▁écologiques	-12994
▁gouvernements	-12995
OB	-12996
aks	-12997
nam	-12998
▁CW	-12999
spec	-13000
érant	-13001
▁West	-13002
insolv	-13003
▁FEOGA	-13004
taining	-13005
▁77/99/	-13006
▁infect	-13007
▁tandis	-13008
▁visent	-13009
iffusion	-13010
▁scrutin	-13011
▁illicite	-13012
▁publicly	-13013
▁segments	-13014
▁chapitres	-13015
▁investors	-13016
▁préserver	-13017
▁introduire	-13018
▁intéressée	-13019
▁qualifying	-13020
▁distributed	-13021
▁équivalents	-13022
DS	-13023
80/	-13024
terg	-13025
▁PUR	-13026
▁cru	-13027
aisie	-13028
losis	-13029
toire	-13030
tonne	-13031
▁1967	-13032
▁mout	-13033
▁dynam	-13034
▁signée	-13035
aviation	-13036
▁CERTIFIC	-13037
▁financer	-13038
▁informées	-13039
▁justifiées	-13040
▁furthermore	-13041
▁strictement	-13042
▁contributing	-13043
▁manipulation	-13044
ream	-13045
▁ova	-13046
appar	-13047
▁(46)	-13048
▁Etat	-13049
▁voul	-13050
▁décès	-13051
▁master	-13052
▁sheets	-13053
excédant	-13054
▁divided	-13055
▁souvent	-13056
▁organise	-13057
▁précitée	-13058
▁fortement	-13059
▁intellectuelle	-13060
▁representation	-13061
ker	-13062
ool	-13063
alog	-13064
▁rol	-13065
▁«1.	-13066
isons	-13067
▁appe	-13068
▁draf	-13069
▁carte	-13070
▁socio	-13071
▁tâche	-13072
jective	-13073
........	-13074
▁targets	-13075
▁rappeler	-13076
▁zoonoses	-13077
▁détention	-13078
insolvabilité	-13079
50/	-13080
aph	-13081
▁zinc	-13082
oeuvre	-13083
▁compil	-13084
▁purity	-13085
ographic	-13086
▁engrais	-13087
▁servant	-13088
▁consists	-13089
▁domicile	-13090
▁confirmer	-13091
▁autorisant	-13092
▁psychotrop	-13093
▁strengthen	-13094
>"	-13095
NEL	-13096
icy	-13097
run	-13098
▁pér	-13099
▁til	-13100
▁tôt	-13101
alcul	-13102
uvres	-13103
▁6(3)	-13104
▁tank	-13105
▁North	-13106
▁accru	-13107
▁CONSIDÉR	-13108
▁calculer	-13109
▁légitime	-13110
▁nitrogen	-13111
▁reserved	-13112
▁éventuel	-13113
emballages	-13114
expéditeur	-13115
▁détenteur	-13116
▁contournement	-13117
MM	-13118
ki	-13119
▁Az	-13120
anol	-13121
▁250	-13122
chent	-13123
▁GMOs	-13124
▁SIDE	-13125
▁brit	-13126
▁souf	-13127
applic	-13128
▁1977,	-13129
▁Enfin	-13130
▁honey	-13131
▁révél	-13132
▁agenda	-13133
▁déplac	-13134
▁britann	-13135
▁defence	-13136
▁donnent	-13137
▁landing	-13138
▁conflict	-13139
▁prélimin	-13140
▁therefrom	-13141
▁spiritueuses	-13142
AIN	-13143
/92.	-13144
▁SEL	-13145
▁SIM	-13146
▁urb	-13147
▁Jord	-13148
▁MARK	-13149
▁ramen	-13150
viation	-13151
▁Danish	-13152
▁Unless	-13153
▁71/118/	-13154
▁81/851/	-13155
▁arrière	-13156
▁equally	-13157
▁welfare	-13158
▁Président	-13159
▁acknowled	-13160
▁télécopie	-13161
▁controller	-13162
▁contrôleur	-13163
▁récipients	-13164
▁déchargement	-13165
▁réexportation	-13166
4-	-13167
fa	-13168
.11	-13169
gypt	-13170
▁arm	-13171
éphal	-13172
▁Oper	-13173
▁filed	-13174
▁files	-13175
▁jugée	-13176
▁présum	-13177
▁remedy	-13178
▁rendus	-13179
▁Charter	-13180
▁prouver	-13181
▁restant	-13182
▁épidémi	-13183
▁ajoutées	-13184
▁consignor	-13185
▁identique	-13186
▁télévision	-13187
▁authenticity	-13188
ova	-13189
osta	-13190
▁259	-13191
/471/	-13192
▁100,	-13193
▁1969	-13194
▁diam	-13195
▁vrac	-13196
▁0,01*	-13197
▁Exper	-13198
▁OFFIC	-13199
▁placés	-13200
▁servir	-13201
▁wholes	-13202
▁display	-13203
▁reprend	-13204
Indonésie	-13205
▁explicit	-13206
▁biologiques	-13207
▁indépendante	-13208
.3	-13209
iry	-13210
ody	-13211
▁%).	-13212
▁DER	-13213
cillary	-13214
▁réunit	-13215
aptitude	-13216
▁Réunion	-13217
▁REFERRED	-13218
▁habilité	-13219
▁Federation	-13220
▁définitifs	-13221
▁industriel	-13222
▁inspecteurs	-13223
κα	-13224
ρο	-13225
2">	-13226
5/87	-13227
eira	-13228
ètes	-13229
tious	-13230
ANNEXE	-13231
enland	-13232
▁démar	-13233
▁tunic	-13234
Albanie	-13235
▁automo	-13236
▁cadmium	-13237
▁nitrate	-13238
▁rencont	-13239
▁endorsed	-13240
▁registry	-13241
▁sickness	-13242
▁Australia	-13243
▁FOLLOWING	-13244
▁deduction	-13245
▁purchases	-13246
▁dénonciation	-13247
ïn	-13248
/14	-13249
1">	-13250
cha	-13251
▁CR	-13252
APPL	-13253
aret	-13254
phos	-13255
▁Pac	-13256
ierre	-13257
▁0,1*	-13258
▁INCL	-13259
▁save	-13260
inoder	-13261
lantic	-13262
▁congé	-13263
▁ordre	-13264
▁Irlande	-13265
▁zootechn	-13266
▁périodiques	-13267
▁Stabilisation	-13268
▁détérioration	-13269
▁structurelles	-13270
ura	-13271
▁IF	-13272
▁SL	-13273
nings	-13274
▁(1);	-13275
.1975,	-13276
▁câbles	-13277
▁municip	-13278
▁purchased	-13279
▁tolerance	-13280
▁exploitants	-13281
ja	-13282
dix	-13283
▁TY	-13284
lets	-13285
oton	-13286
ulin	-13287
weet	-13288
gypte	-13289
▁Market	-13290
▁recons	-13291
▁secure	-13292
building	-13293
jections	-13294
▁puisque	-13295
commercial	-13296
▁1605/2002	-13297
▁deadlines	-13298
▁evolution	-13299
▁timetable	-13300
▁Adaptation	-13301
▁intérieure	-13302
▁opposition	-13303
νο	-13304
rits	-13305
▁aer	-13306
anche	-13307
▁nine	-13308
▁2358/	-13309
▁chann	-13310
▁ACCOUN	-13311
▁perçus	-13312
▁schéma	-13313
▁soufre	-13314
idential	-13315
▁arrêtant	-13316
▁1258/1999	-13317
▁beneficial	-13318
▁expiration	-13319
▁succursale	-13320
▁antérieures	-13321
▁contribuent	-13322
EY	-13323
ETS	-13324
▁CT	-13325
note	-13326
onal	-13327
itored	-13328
▁1971,	-13329
▁Paris	-13330
antages	-13331
tivités	-13332
▁détenues	-13333
▁outbreak	-13334
▁respecté	-13335
▁abolition	-13336
▁désignent	-13337
▁monitored	-13338
▁advantages	-13339
▁productivity	-13340
ISS	-13341
▁PE	-13342
chée	-13343
▁circu	-13344
▁mixed	-13345
▁perce	-13346
essions	-13347
▁suspic	-13348
▁whilst	-13349
▁équidés	-13350
▁salaires	-13351
▁updating	-13352
▁divisions	-13353
▁parameters	-13354
▁Verordening	-13355
Ch	-13356
▁180	-13357
▁99,	-13358
rapeu	-13359
▁2799	-13360
▁pati	-13361
▁scel	-13362
▁2771/	-13363
▁green	-13364
endence	-13365
▁espace	-13366
▁séchés	-13367
▁vendre	-13368
▁chapter	-13369
▁choisir	-13370
▁grading	-13371
▁résulter	-13372
▁strictly	-13373
▁contrôlée	-13374
▁prolonger	-13375
▁supplying	-13376
▁terminate	-13377
▁déroulement	-13378
organisations	-13379
▁disponibilité	-13380
La	-13381
86/	-13382
Med	-13383
gré	-13384
▁SC	-13385
▁REM	-13386
="2">	-13387
▁(3).	-13388
▁Outre	-13389
▁livre	-13390
▁moûts	-13391
▁seats	-13392
▁symbol	-13393
▁estimée	-13394
▁souscrit	-13395
▁équipement	-13396
discrimination	-13397
▁notwithstanding	-13398
▁á	-13399
cor	-13400
fie	-13401
▁sè	-13402
(4)(	-13403
▁161	-13404
ifier	-13405
▁soil	-13406
élimin	-13407
▁cream	-13408
▁juice	-13409
▁nette	-13410
▁raise	-13411
▁doutes	-13412
▁Madeira	-13413
▁dealing	-13414
▁bancaire	-13415
▁sectoral	-13416
▁capitaine	-13417
▁enregistrement	-13418
HR	-13419
▁CWP	-13420
chées	-13421
erion	-13422
fondi	-13423
▁Work	-13424
▁afric	-13425
▁angla	-13426
▁ovins	-13427
inclure	-13428
rations	-13429
▁livres	-13430
▁3072/95	-13431
▁PRODUIT	-13432
▁tractor	-13433
▁contenus	-13434
▁indemnes	-13435
▁médicaux	-13436
▁délivrées	-13437
▁approfondi	-13438
▁deliveries	-13439
▁effectives	-13440
▁propriétés	-13441
▁distortions	-13442
▁computerised	-13443
uta	-13444
hasa	-13445
▁115	-13446
/2004.	-13447
▁cesse	-13448
ecuting	-13449
inshasa	-13450
▁acquit	-13451
▁réperc	-13452
▁révélé	-13453
▁Consult	-13454
▁assorti	-13455
▁atmosph	-13456
▁exclure	-13457
▁gravité	-13458
▁origine	-13459
authentic	-13460
▁unitaire	-13461
▁specimens	-13462
▁variables	-13463
▁ACCORDANCE	-13464
▁accompagnant	-13465
▁discontinues	-13466
▁interdiction	-13467
▁transferable	-13468
.1,	-13469
ift	-13470
▁»:	-13471
349/	-13472
avec	-13473
bred	-13474
cers	-13475
▁46,	-13476
▁BEN	-13477
▁sud	-13478
ethyl	-13479
▁(47)	-13480
▁(48)	-13481
avenir	-13482
▁1696/	-13483
▁buyer	-13484
▁paddy	-13485
▁potato	-13486
▁acquire	-13487
▁détient	-13488
▁entrent	-13489
▁practic	-13490
▁sensible	-13491
▁Objective	-13492
▁banknotes	-13493
▁estimation	-13494
▁simplifier	-13495
incinération	-13496
ommunication	-13497
▁Declaration	-13498
▁circumvention	-13499
▁indépendamment	-13500
ista	-13501
zione	-13502
▁2075	-13503
▁Soci	-13504
▁[5].	-13505
▁Entre	-13506
additif	-13507
▁envois	-13508
appareil	-13509
▁islands	-13510
▁envisagé	-13511
▁repeated	-13512
▁tableaux	-13513
▁PROCÉDURE	-13514
▁alternate	-13515
▁aéroports	-13516
▁initially	-13517
▁tolérance	-13518
▁universel	-13519
▁Inspection	-13520
▁monétaires	-13521
▁discussions	-13522
erre	-13523
ular	-13524
UFACT	-13525
ación	-13526
▁carn	-13527
unités	-13528
▁1(1)(	-13529
▁25000	-13530
▁books	-13531
elihood	-13532
▁Superv	-13533
▁Service	-13534
▁manager	-13535
▁notices	-13536
PORTATION	-13537
▁EUROPEEN	-13538
▁defining	-13539
▁involves	-13540
▁ouvertes	-13541
▁statutory	-13542
▁likelihood	-13543
▁représenter	-13544
▁compensatoire	-13545
▁ANY	-13546
MPING	-13547
eneur	-13548
▁(49)	-13549
[...]
